{
  "version": "1.0",
  "truncation": null,
  "padding": null,
  "added_tokens": [
    {
      "id": 0,
      "content": "[PAD]",
      "single_word": false,
      "lstrip": false,
      "rstrip": false,
      "normalized": false,
      "special": true
    },
    {
      "id": 1,
      "content": "[UNK]",
      "single_word": false,
      "lstrip": false,
      "rstrip": false,
      "normalized": false,
      "special": true
    }
  ],
  "normalizer": null,
  "pre_tokenizer": {
    "type": "Whitespace"
  },
  "post_processor": null,
  "decoder": null,
  "model": {
    "type": "BPE",
    "dropout": null,
    "unk_token": "[UNK]",
    "continuing_subword_prefix": null,
    "end_of_word_suffix": null,
    "fuse_unk": false,
    "byte_fallback": false,
    "ignore_merges": false,
    "vocab": {
      "[PAD]": 0,
      "[UNK]": 1,
      "!": 2,
      "#": 3,
      "$": 4,
      "&": 5,
      "'": 6,
      "(": 7,
      ")": 8,
      "*": 9,
      "+": 10,
      ",": 11,
      "-": 12,
      ".": 13,
      "/": 14,
      "0": 15,
      "1": 16,
      "2": 17,
      "3": 18,
      "4": 19,
      "5": 20,
      "6": 21,
      "7": 22,
      "8": 23,
      "9": 24,
      ":": 25,
      ";": 26,
      "=": 27,
      "?": 28,
      "`": 29,
      "a": 30,
      "b": 31,
      "c": 32,
      "d": 33,
      "e": 34,
      "f": 35,
      "g": 36,
      "h": 37,
      "i": 38,
      "j": 39,
      "k": 40,
      "l": 41,
      "m": 42,
      "n": 43,
      "o": 44,
      "p": 45,
      "q": 46,
      "r": 47,
      "s": 48,
      "t": 49,
      "u": 50,
      "v": 51,
      "w": 52,
      "x": 53,
      "y": 54,
      "z": 55,
      "á": 56,
      "â": 57,
      "ã": 58,
      "æ": 59,
      "è": 60,
      "é": 61,
      "í": 62,
      "ï": 63,
      "ñ": 64,
      "ó": 65,
      "ü": 66,
      "th": 67,
      "in": 68,
      "an": 69,
      "er": 70,
      "en": 71,
      "re": 72,
      "the": 73,
      "at": 74,
      "on": 75,
      "ing": 76,
      "st": 77,
      "or": 78,
      "it": 79,
      "and": 80,
      "al": 81,
      "es": 82,
      "is": 83,
      "ou": 84,
      "ar": 85,
      "of": 86,
      "ly": 87,
      "to": 88,
      "ed": 89,
      "ic": 90,
      "le": 91,
      "as": 92,
      "om": 93,
      "il": 94,
      "ch": 95,
      "mo": 96,
      "el": 97,
      "ent": 98,
      "ac": 99,
      "ion": 100,
      "se": 101,
      "be": 102,
      "un": 103,
      "ve": 104,
      "that": 105,
      "im": 106,
      "de": 107,
      "ul": 108,
      "lo": 109,
      "vi": 110,
      "ab": 111,
      "gh": 112,
      "for": 113,
      "ma": 114,
      "li": 115,
      "ra": 116,
      "ver": 117,
      "ro": 118,
      "ut": 119,
      "wh": 120,
      "su": 121,
      "com": 122,
      "ter": 123,
      "wi": 124,
      "ce": 125,
      "fil": 126,
      "no": 127,
      "ri": 128,
      "film": 129,
      "ad": 130,
      "ct": 131,
      "with": 132,
      "am": 133,
      "di": 134,
      "ess": 135,
      "sh": 136,
      "ke": 137,
      "ge": 138,
      "its": 139,
      "ol": 140,
      "ir": 141,
      "fe": 142,
      "movi": 143,
      "out": 144,
      "you": 145,
      "per": 146,
      "ay": 147,
      "one": 148,
      "sp": 149,
      "ex": 150,
      "movie": 151,
      "con": 152,
      "od": 153,
      "ous": 154,
      "ap": 155,
      "um": 156,
      "ful": 157,
      "sc": 158,
      "po": 159,
      "ne": 160,
      "so": 161,
      "art": 162,
      "ght": 163,
      "do": 164,
      "ive": 165,
      "this": 166,
      "act": 167,
      "ant": 168,
      "all": 169,
      "ation": 170,
      "go": 171,
      "ther": 172,
      "wor": 173,
      "em": 174,
      "qu": 175,
      "ag": 176,
      "able": 177,
      "rom": 178,
      "but": 179,
      "ill": 180,
      "are": 181,
      "ure": 182,
      "man": 183,
      "ally": 184,
      "ast": 185,
      "ur": 186,
      "ate": 187,
      "id": 188,
      "pre": 189,
      "us": 190,
      "..": 191,
      "ta": 192,
      "pe": 193,
      "au": 194,
      "pl": 195,
      "pro": 196,
      "ome": 197,
      "ity": 198,
      "he": 199,
      "char": 200,
      "ell": 201,
      "we": 202,
      "not": 203,
      "by": 204,
      "end": 205,
      "some": 206,
      "ory": 207,
      "tim": 208,
      "tr": 209,
      "ld": 210,
      "ist": 211,
      "ha": 212,
      "ers": 213,
      "more": 214,
      "thing": 215,
      "ev": 216,
      "like": 217,
      "than": 218,
      "ind": 219,
      "int": 220,
      "king": 221,
      "--": 222,
      "fun": 223,
      "very": 224,
      "ough": 225,
      "op": 226,
      "ust": 227,
      "ig": 228,
      "up": 229,
      "if": 230,
      "cl": 231,
      "ss": 232,
      "has": 233,
      "ow": 234,
      "from": 235,
      "ence": 236,
      "most": 237,
      "ack": 238,
      "der": 239,
      "ine": 240,
      "about": 241,
      "bo": 242,
      "ich": 243,
      "his": 244,
      "ts": 245,
      "ight": 246,
      "itt": 247,
      "who": 248,
      "ong": 249,
      "acter": 250,
      "character": 251,
      "te": 252,
      "fl": 253,
      "way": 254,
      "ould": 255,
      "ard": 256,
      "ish": 257,
      "ious": 258,
      "story": 259,
      "me": 260,
      "ie": 261,
      "have": 262,
      "pt": 263,
      "good": 264,
      "ial": 265,
      "less": 266,
      "oun": 267,
      "ep": 268,
      "ks": 269,
      "ny": 270,
      "ple": 271,
      "cre": 272,
      "gu": 273,
      "wo": 274,
      "hum": 275,
      "comed": 276,
      "her": 277,
      "our": 278,
      "bl": 279,
      "rect": 280,
      "too": 281,
      "ph": 282,
      "ment": 283,
      "direct": 284,
      "into": 285,
      "thr": 286,
      "off": 287,
      "ces": 288,
      "any": 289,
      "ble": 290,
      "low": 291,
      "jo": 292,
      "br": 293,
      "pr": 294,
      "str": 295,
      "tra": 296,
      "kes": 297,
      "mat": 298,
      "ck": 299,
      "...": 300,
      "funny": 301,
      "dra": 302,
      "ical": 303,
      "ins": 304,
      "ves": 305,
      "ating": 306,
      "co": 307,
      "ass": 308,
      "even": 309,
      "mu": 310,
      "ies": 311,
      "ative": 312,
      "ire": 313,
      "comedy": 314,
      "est": 315,
      "elf": 316,
      "gr": 317,
      "time": 318,
      "ary": 319,
      "old": 320,
      "et": 321,
      "ick": 322,
      "just": 323,
      "ated": 324,
      "ict": 325,
      "can": 326,
      "ff": 327,
      "tain": 328,
      "ens": 329,
      "ingly": 330,
      "what": 331,
      "ect": 332,
      "well": 333,
      "ense": 334,
      "ear": 335,
      "other": 336,
      "over": 337,
      "sur": 338,
      "perfor": 339,
      "gre": 340,
      "wn": 341,
      "ite": 342,
      "dis": 343,
      "ile": 344,
      "wat": 345,
      "ty": 346,
      "ise": 347,
      "cr": 348,
      "pa": 349,
      "wer": 350,
      "ertain": 351,
      "characters": 352,
      "feel": 353,
      "ice": 354,
      "plo": 355,
      "every": 356,
      "your": 357,
      "ound": 358,
      "min": 359,
      "will": 360,
      "inter": 361,
      "ance": 362,
      "ace": 363,
      "scre": 364,
      "does": 365,
      "bad": 366,
      "des": 367,
      "sub": 368,
      "ser": 369,
      "loo": 370,
      "gen": 371,
      "performan": 372,
      "litt": 373,
      "ort": 374,
      "wr": 375,
      "work": 376,
      "much": 377,
      "little": 378,
      "iz": 379,
      "ide": 380,
      "get": 381,
      "fect": 382,
      "tal": 383,
      "ber": 384,
      "mar": 385,
      "mer": 386,
      "real": 387,
      "ash": 388,
      "life": 389,
      "fa": 390,
      "vis": 391,
      "play": 392,
      "ster": 393,
      "``": 394,
      "ach": 395,
      "iv": 396,
      "ness": 397,
      "''": 398,
      "age": 399,
      "screen": 400,
      "which": 401,
      "du": 402,
      "ot": 403,
      "del": 404,
      "ents": 405,
      "heart": 406,
      "watch": 407,
      "war": 408,
      "vel": 409,
      "love": 410,
      "action": 411,
      "bet": 412,
      "their": 413,
      "ult": 414,
      "best": 415,
      "ving": 416,
      "entertain": 417,
      "make": 418,
      "ily": 419,
      "ip": 420,
      "my": 421,
      "fully": 422,
      "ef": 423,
      "self": 424,
      "director": 425,
      "ud": 426,
      "ying": 427,
      "only": 428,
      "through": 429,
      "af": 430,
      "sm": 431,
      "see": 432,
      "ling": 433,
      "comp": 434,
      "been": 435,
      "fre": 436,
      "seem": 437,
      "imp": 438,
      "ho": 439,
      "aw": 440,
      "tri": 441,
      "humor": 442,
      "mot": 443,
      "ain": 444,
      "ore": 445,
      "new": 446,
      "under": 447,
      "ual": 448,
      "never": 449,
      "cess": 450,
      "them": 451,
      "year": 452,
      "ional": 453,
      "part": 454,
      "son": 455,
      "interest": 456,
      "long": 457,
      "ions": 458,
      "cin": 459,
      "ame": 460,
      "movies": 461,
      "sy": 462,
      "ans": 463,
      "augh": 464,
      "makes": 465,
      "eng": 466,
      "enough": 467,
      "ild": 468,
      "aut": 469,
      "cent": 470,
      "ry": 471,
      "inal": 472,
      "minut": 473,
      "ject": 474,
      "made": 475,
      "there": 476,
      "joy": 477,
      "gra": 478,
      "was": 479,
      "fr": 480,
      "ning": 481,
      "ob": 482,
      "fam": 483,
      "spir": 484,
      "come": 485,
      "cast": 486,
      "gent": 487,
      "laugh": 488,
      "tur": 489,
      "right": 490,
      "oc": 491,
      "something": 492,
      "plot": 493,
      "ting": 494,
      "great": 495,
      "ors": 496,
      "audi": 497,
      "ably": 498,
      "cau": 499,
      "par": 500,
      "ue": 501,
      "vent": 502,
      "sty": 503,
      "che": 504,
      "hol": 505,
      "ign": 506,
      "beaut": 507,
      "bit": 508,
      "would": 509,
      "pleas": 510,
      "imag": 511,
      "down": 512,
      "av": 513,
      "sense": 514,
      "ang": 515,
      "press": 516,
      "sat": 517,
      "point": 518,
      "day": 519,
      "ible": 520,
      "surpr": 521,
      "bel": 522,
      "fir": 523,
      "amer": 524,
      "big": 525,
      "ten": 526,
      "may": 527,
      "own": 528,
      "human": 529,
      "cle": 530,
      "car": 531,
      "look": 532,
      "performances": 533,
      "cap": 534,
      "ever": 535,
      "ming": 536,
      "while": 537,
      "how": 538,
      "light": 539,
      "row": 540,
      "ci": 541,
      "ec": 542,
      "enjoy": 543,
      "igh": 544,
      "now": 545,
      "wood": 546,
      "ature": 547,
      "stand": 548,
      "making": 549,
      "scen": 550,
      "back": 551,
      "cum": 552,
      "could": 553,
      "emot": 554,
      "tent": 555,
      "films": 556,
      "ately": 557,
      "gue": 558,
      "drama": 559,
      "cause": 560,
      "sit": 561,
      "two": 562,
      "many": 563,
      "mon": 564,
      "they": 565,
      "worth": 566,
      "better": 567,
      "elling": 568,
      "run": 569,
      "really": 570,
      "vie": 571,
      "acting": 572,
      "ak": 573,
      "gy": 574,
      "being": 575,
      "first": 576,
      "sl": 577,
      "swe": 578,
      "tre": 579,
      "ved": 580,
      "such": 581,
      "med": 582,
      "vers": 583,
      "col": 584,
      "hard": 585,
      "tho": 586,
      "care": 587,
      "surpris": 588,
      "por": 589,
      "cept": 590,
      "times": 591,
      "istic": 592,
      "intel": 593,
      "thrill": 594,
      "ced": 595,
      "mem": 596,
      "mind": 597,
      "ism": 598,
      "app": 599,
      "pie": 600,
      "thin": 601,
      "arly": 602,
      "peri": 603,
      "power": 604,
      "set": 605,
      "world": 606,
      "peop": 607,
      "people": 608,
      "bu": 609,
      "kind": 610,
      "because": 611,
      "when": 612,
      "scri": 613,
      "hor": 614,
      "ually": 615,
      "cho": 616,
      "both": 617,
      "nothing": 618,
      "without": 619,
      "show": 620,
      "antic": 621,
      "high": 622,
      "ner": 623,
      "kid": 624,
      "arr": 625,
      "comes": 626,
      "ath": 627,
      "ky": 628,
      "pict": 629,
      "orig": 630,
      "ations": 631,
      "entertaining": 632,
      "audience": 633,
      "won": 634,
      "original": 635,
      "ull": 636,
      "ically": 637,
      "beauti": 638,
      "holly": 639,
      "far": 640,
      "ted": 641,
      "ere": 642,
      "rel": 643,
      "comple": 644,
      "clich": 645,
      "intelli": 646,
      "ought": 647,
      "often": 648,
      "da": 649,
      "pp": 650,
      "still": 651,
      "mis": 652,
      "sent": 653,
      "ug": 654,
      "also": 655,
      "should": 656,
      "poss": 657,
      "fresh": 658,
      "minutes": 659,
      "script": 660,
      "those": 661,
      "find": 662,
      "ll": 663,
      "turn": 664,
      "cra": 665,
      "dre": 666,
      "mor": 667,
      "vin": 668,
      "ates": 669,
      "sum": 670,
      "interesting": 671,
      "hand": 672,
      "iting": 673,
      "mom": 674,
      "ian": 675,
      "iness": 676,
      "sequ": 677,
      "hollywood": 678,
      "bro": 679,
      "ination": 680,
      "ering": 681,
      "fort": 682,
      "suc": 683,
      "spect": 684,
      "americ": 685,
      "picture": 686,
      "cy": 687,
      "les": 688,
      "def": 689,
      "docum": 690,
      "document": 691,
      "keep": 692,
      "ney": 693,
      "gener": 694,
      "gi": 695,
      "hal": 696,
      "hist": 697,
      "stu": 698,
      "alo": 699,
      "few": 700,
      "performance": 701,
      "hour": 702,
      "sin": 703,
      "ences": 704,
      "red": 705,
      "dialo": 706,
      "appe": 707,
      "dit": 708,
      "mus": 709,
      "star": 710,
      "sweet": 711,
      "wit": 712,
      "ste": 713,
      "mak": 714,
      "person": 715,
      "emat": 716,
      "mark": 717,
      "led": 718,
      "another": 719,
      "res": 720,
      "ching": 721,
      "cor": 722,
      "cut": 723,
      "wom": 724,
      "lea": 725,
      "cinemat": 726,
      "ca": 727,
      "know": 728,
      "que": 729,
      "ages": 730,
      "visual": 731,
      "view": 732,
      "wonder": 733,
      "bre": 734,
      "cult": 735,
      "him": 736,
      "ng": 737,
      "ings": 738,
      "young": 739,
      "romantic": 740,
      "fi": 741,
      "might": 742,
      "pol": 743,
      "pret": 744,
      "smart": 745,
      "dialogue": 746,
      "dar": 747,
      "fore": 748,
      "att": 749,
      "vide": 750,
      "ross": 751,
      "works": 752,
      "satis": 753,
      "den": 754,
      "ged": 755,
      "pass": 756,
      "form": 757,
      "ds": 758,
      "sing": 759,
      "ys": 760,
      "ality": 761,
      "comm": 762,
      "exc": 763,
      "ext": 764,
      "umb": 765,
      "pect": 766,
      "matic": 767,
      "effect": 768,
      "thriller": 769,
      "ale": 770,
      "after": 771,
      "lack": 772,
      "ush": 773,
      "eless": 774,
      "did": 775,
      "spec": 776,
      "ends": 777,
      "family": 778,
      "spirit": 779,
      "bor": 780,
      "dict": 781,
      "sk": 782,
      "tou": 783,
      "class": 784,
      "ired": 785,
      "piece": 786,
      "where": 787,
      "cont": 788,
      "graph": 789,
      "ward": 790,
      "anim": 791,
      "ously": 792,
      "using": 793,
      "mess": 794,
      "vo": 795,
      "want": 796,
      "theat": 797,
      "sex": 798,
      "ib": 799,
      "ange": 800,
      "subject": 801,
      "eas": 802,
      "gl": 803,
      "win": 804,
      "dist": 805,
      "experi": 806,
      "take": 807,
      "half": 808,
      "ener": 809,
      "ason": 810,
      "she": 811,
      "full": 812,
      "again": 813,
      "delight": 814,
      "watching": 815,
      "had": 816,
      "ics": 817,
      "rather": 818,
      "produ": 819,
      "tru": 820,
      "ways": 821,
      "bar": 822,
      "fic": 823,
      "deep": 824,
      "ship": 825,
      "mater": 826,
      "scenes": 827,
      "satisf": 828,
      "ger": 829,
      "these": 830,
      "child": 831,
      "ultim": 832,
      "vid": 833,
      "perfect": 834,
      "laughs": 835,
      "portra": 836,
      "almost": 837,
      "cing": 838,
      "face": 839,
      "ren": 840,
      "thought": 841,
      "rid": 842,
      "need": 843,
      "charm": 844,
      "here": 845,
      "stru": 846,
      "ree": 847,
      "filmmak": 848,
      "quite": 849,
      "things": 850,
      "seems": 851,
      "cer": 852,
      "hil": 853,
      "mi": 854,
      "sim": 855,
      "tit": 856,
      "icul": 857,
      "tale": 858,
      "moments": 859,
      "music": 860,
      "clo": 861,
      "put": 862,
      "sa": 863,
      "ane": 864,
      "iment": 865,
      "master": 866,
      "why": 867,
      "antly": 868,
      "ween": 869,
      "style": 870,
      "give": 871,
      "ok": 872,
      "wal": 873,
      "ility": 874,
      "ently": 875,
      "documentary": 876,
      "material": 877,
      "cine": 878,
      "dull": 879,
      "ey": 880,
      "narr": 881,
      "sid": 882,
      "ond": 883,
      "seen": 884,
      "log": 885,
      "ction": 886,
      "itself": 887,
      "actors": 888,
      "going": 889,
      "aste": 890,
      "compelling": 891,
      "kids": 892,
      "cinema": 893,
      "fas": 894,
      "la": 895,
      "ionally": 896,
      "empt": 897,
      "takes": 898,
      "emotional": 899,
      "happ": 900,
      "though": 901,
      "illi": 902,
      "moving": 903,
      "before": 904,
      "super": 905,
      "gets": 906,
      "cas": 907,
      "ele": 908,
      "line": 909,
      "compl": 910,
      "summer": 911,
      "hilar": 912,
      "fascin": 913,
      "mid": 914,
      "na": 915,
      "ific": 916,
      "teen": 917,
      "mean": 918,
      "were": 919,
      "serious": 920,
      "talent": 921,
      "fall": 922,
      "hy": 923,
      "ms": 924,
      "sad": 925,
      "sens": 926,
      "yet": 927,
      "uni": 928,
      "terri": 929,
      "diff": 930,
      "expect": 931,
      "predict": 932,
      "warm": 933,
      "clever": 934,
      "oper": 935,
      "read": 936,
      "quir": 937,
      "deli": 938,
      "possible": 939,
      "cinematic": 940,
      "away": 941,
      "io": 942,
      "iter": 943,
      "ars": 944,
      "between": 945,
      "video": 946,
      "ror": 947,
      "list": 948,
      "sho": 949,
      "genre": 950,
      "engag": 951,
      "ven": 952,
      "toge": 953,
      "susp": 954,
      "feels": 955,
      "entertainment": 956,
      "struct": 957,
      "together": 958,
      "zy": 959,
      "level": 960,
      "feature": 961,
      "soph": 962,
      "strong": 963,
      "narrative": 964,
      "iar": 965,
      "iev": 966,
      "rich": 967,
      "tic": 968,
      "lot": 969,
      "rare": 970,
      "used": 971,
      "american": 972,
      "dark": 973,
      "experience": 974,
      "dle": 975,
      "fri": 976,
      "ia": 977,
      "sou": 978,
      "simp": 979,
      "val": 980,
      "irl": 981,
      "ural": 982,
      "direction": 983,
      "idea": 984,
      "suspense": 985,
      "bal": 986,
      "sor": 987,
      "place": 988,
      "try": 989,
      "fail": 990,
      "screenplay": 991,
      "famil": 992,
      "cliché": 993,
      "sentiment": 994,
      "special": 995,
      "fascinating": 996,
      "hone": 997,
      "lar": 998,
      "stra": 999,
      "allow": 1000,
      "die": 1001,
      "convin": 1002,
      "intelligent": 1003,
      "done": 1004,
      "sound": 1005,
      "vol": 1006,
      "aring": 1007,
      "main": 1008,
      "lid": 1009,
      "pop": 1010,
      "ieve": 1011,
      "years": 1012,
      "beautiful": 1013,
      "call": 1014,
      "fo": 1015,
      "girl": 1016,
      "men": 1017,
      "use": 1018,
      "ered": 1019,
      "ones": 1020,
      "head": 1021,
      "pain": 1022,
      "subt": 1023,
      "izing": 1024,
      "air": 1025,
      "coun": 1026,
      "fant": 1027,
      "mel": 1028,
      "ank": 1029,
      "start": 1030,
      "around": 1031,
      "intri": 1032,
      "capt": 1033,
      "stuff": 1034,
      "bas": 1035,
      "cial": 1036,
      "hel": 1037,
      "sch": 1038,
      "comic": 1039,
      "ket": 1040,
      "worst": 1041,
      "ures": 1042,
      "sometimes": 1043,
      "surprisingly": 1044,
      "complete": 1045,
      "bra": 1046,
      "equ": 1047,
      "prom": 1048,
      "sign": 1049,
      "als": 1050,
      "top": 1051,
      "true": 1052,
      "itten": 1053,
      "ultimately": 1054,
      "ier": 1055,
      "ening": 1056,
      "aling": 1057,
      "vious": 1058,
      "nearly": 1059,
      "actor": 1060,
      "enjoyable": 1061,
      "gives": 1062,
      "predictable": 1063,
      "last": 1064,
      "three": 1065,
      "ord": 1066,
      "lead": 1067,
      "least": 1068,
      "moder": 1069,
      "ime": 1070,
      "dead": 1071,
      "amusing": 1072,
      "modern": 1073,
      "ade": 1074,
      "blo": 1075,
      "har": 1076,
      "hold": 1077,
      "sed": 1078,
      "beg": 1079,
      "advent": 1080,
      "ody": 1081,
      "ending": 1082,
      "flat": 1083,
      "insight": 1084,
      "effort": 1085,
      "think": 1086,
      "women": 1087,
      "engaging": 1088,
      "cou": 1089,
      "ither": 1090,
      "sil": 1091,
      "ze": 1092,
      "impress": 1093,
      "gest": 1094,
      "solid": 1095,
      "ational": 1096,
      "charming": 1097,
      "theater": 1098,
      "satisfying": 1099,
      "gic": 1100,
      "gence": 1101,
      "ler": 1102,
      "same": 1103,
      "twi": 1104,
      "ons": 1105,
      "let": 1106,
      "actually": 1107,
      "ments": 1108,
      "brilli": 1109,
      "minute": 1110,
      "horror": 1111,
      "success": 1112,
      "gor": 1113,
      "usu": 1114,
      "ref": 1115,
      "remark": 1116,
      "ities": 1117,
      "filmmaking": 1118,
      "explo": 1119,
      "prof": 1120,
      "matter": 1121,
      "drag": 1122,
      "history": 1123,
      "pretty": 1124,
      "honest": 1125,
      "lu": 1126,
      "non": 1127,
      "sel": 1128,
      "thor": 1129,
      "reason": 1130,
      "stud": 1131,
      "short": 1132,
      "opp": 1133,
      "anything": 1134,
      "serv": 1135,
      "written": 1136,
      "memor": 1137,
      "powerful": 1138,
      "gri": 1139,
      "say": 1140,
      "wa": 1141,
      "geous": 1142,
      "hero": 1143,
      "grand": 1144,
      "ized": 1145,
      "culture": 1146,
      "bur": 1147,
      "dr": 1148,
      "ses": 1149,
      "once": 1150,
      "acing": 1151,
      "sure": 1152,
      "flaw": 1153,
      "black": 1154,
      "dramatic": 1155,
      "everyone": 1156,
      "looking": 1157,
      "beautifully": 1158,
      "mix": 1159,
      "cur": 1160,
      "fin": 1161,
      "fra": 1162,
      "ient": 1163,
      "past": 1164,
      "lect": 1165,
      "secon": 1166,
      "utter": 1167,
      "consid": 1168,
      "scar": 1169,
      "got": 1170,
      "feeling": 1171,
      "complex": 1172,
      "19": 1173,
      "certain": 1174,
      "ked": 1175,
      "nice": 1176,
      "slow": 1177,
      "telling": 1178,
      "goes": 1179,
      "prob": 1180,
      "desp": 1181,
      "myster": 1182,
      "10": 1183,
      "dam": 1184,
      "hu": 1185,
      "pun": 1186,
      "psy": 1187,
      "invent": 1188,
      "itation": 1189,
      "ceed": 1190,
      "ured": 1191,
      "uring": 1192,
      "atest": 1193,
      "project": 1194,
      "ished": 1195,
      "iest": 1196,
      "import": 1197,
      "leave": 1198,
      "familiar": 1199,
      "fel": 1200,
      "nature": 1201,
      "ute": 1202,
      "coming": 1203,
      "extra": 1204,
      "anyone": 1205,
      "intelligence": 1206,
      "simply": 1207,
      "twist": 1208,
      "aim": 1209,
      "fol": 1210,
      "tone": 1211,
      "zz": 1212,
      "rest": 1213,
      "attr": 1214,
      "becomes": 1215,
      "ults": 1216,
      "contri": 1217,
      "posit": 1218,
      "manages": 1219,
      "trying": 1220,
      "flick": 1221,
      "cru": 1222,
      "writer": 1223,
      "affect": 1224,
      "stead": 1225,
      "polit": 1226,
      "passion": 1227,
      "deeply": 1228,
      "differ": 1229,
      "silly": 1230,
      "memorable": 1231,
      "despite": 1232,
      "dri": 1233,
      "fine": 1234,
      "gn": 1235,
      "lin": 1236,
      "mur": 1237,
      "wise": 1238,
      "wild": 1239,
      "ench": 1240,
      "rele": 1241,
      "stre": 1242,
      "icks": 1243,
      "beat": 1244,
      "viol": 1245,
      "ird": 1246,
      "conf": 1247,
      "poor": 1248,
      "ags": 1249,
      "offers": 1250,
      "fair": 1251,
      "sequel": 1252,
      "defin": 1253,
      "energy": 1254,
      "portrait": 1255,
      "hilarious": 1256,
      "opera": 1257,
      "quirky": 1258,
      "dy": 1259,
      "ft": 1260,
      "fash": 1261,
      "sol": 1262,
      "inspir": 1263,
      "ital": 1264,
      "itch": 1265,
      "heav": 1266,
      "ustr": 1267,
      "whole": 1268,
      "sett": 1269,
      "wonderful": 1270,
      "effects": 1271,
      "subtle": 1272,
      "selves": 1273,
      "fashion": 1274,
      "dro": 1275,
      "hop": 1276,
      "ps": 1277,
      "pat": 1278,
      "pri": 1279,
      "stup": 1280,
      "edly": 1281,
      "vir": 1282,
      "ability": 1283,
      "romance": 1284,
      "stupid": 1285,
      "dumb": 1286,
      "mise": 1287,
      "pay": 1288,
      "then": 1289,
      "insp": 1290,
      "sto": 1291,
      "always": 1292,
      "entire": 1293,
      "acy": 1294,
      "aces": 1295,
      "dep": 1296,
      "death": 1297,
      "suff": 1298,
      "odra": 1299,
      "vision": 1300,
      "iven": 1301,
      "small": 1302,
      "sym": 1303,
      "personal": 1304,
      "truly": 1305,
      "soul": 1306,
      "melodra": 1307,
      "gar": 1308,
      "land": 1309,
      "pu": 1310,
      "espe": 1311,
      "dest": 1312,
      "rock": 1313,
      "sust": 1314,
      "amp": 1315,
      "artist": 1316,
      "proble": 1317,
      "strange": 1318,
      "ension": 1319,
      "everything": 1320,
      "ocative": 1321,
      "imagin": 1322,
      "dream": 1323,
      "moral": 1324,
      "hours": 1325,
      "touch": 1326,
      "easy": 1327,
      "children": 1328,
      "convincing": 1329,
      "ban": 1330,
      "ben": 1331,
      "cul": 1332,
      "nat": 1333,
      "instead": 1334,
      "ery": 1335,
      "step": 1336,
      "escap": 1337,
      "chan": 1338,
      "aced": 1339,
      "concept": 1340,
      "tail": 1341,
      "taking": 1342,
      "proves": 1343,
      "understand": 1344,
      "cially": 1345,
      "slap": 1346,
      "touching": 1347,
      "graphy": 1348,
      "uous": 1349,
      "ende": 1350,
      "refresh": 1351,
      "ited": 1352,
      "ese": 1353,
      "impossible": 1354,
      "ula": 1355,
      "exam": 1356,
      "ationship": 1357,
      "quest": 1358,
      "pres": 1359,
      "pleasure": 1360,
      "believ": 1361,
      "relationship": 1362,
      "boring": 1363,
      "filmmakers": 1364,
      "middle": 1365,
      "sentimental": 1366,
      "fantas": 1367,
      "especially": 1368,
      "lish": 1369,
      "none": 1370,
      "tv": 1371,
      "ony": 1372,
      "oud": 1373,
      "dev": 1374,
      "ution": 1375,
      "ambit": 1376,
      "oney": 1377,
      "spl": 1378,
      "ively": 1379,
      "book": 1380,
      "tech": 1381,
      "path": 1382,
      "deser": 1383,
      "color": 1384,
      "cat": 1385,
      "pur": 1386,
      "slo": 1387,
      "ories": 1388,
      "ising": 1389,
      "abo": 1390,
      "ride": 1391,
      "soap": 1392,
      "premise": 1393,
      "typ": 1394,
      "delic": 1395,
      "cheap": 1396,
      "histor": 1397,
      "commend": 1398,
      "falls": 1399,
      "study": 1400,
      "cise": 1401,
      "fans": 1402,
      "tom": 1403,
      "dec": 1404,
      "dem": 1405,
      "guing": 1406,
      "particul": 1407,
      "ength": 1408,
      "lacks": 1409,
      "second": 1410,
      "20": 1411,
      "cal": 1412,
      "ding": 1413,
      "fan": 1414,
      "ith": 1415,
      "must": 1416,
      "night": 1417,
      "live": 1418,
      "adm": 1419,
      "appoint": 1420,
      "ender": 1421,
      "directed": 1422,
      "berg": 1423,
      "velop": 1424,
      "obvious": 1425,
      "situ": 1426,
      "talented": 1427,
      "remarkable": 1428,
      "psycho": 1429,
      "important": 1430,
      "cold": 1431,
      "dim": 1432,
      "grow": 1433,
      "nor": 1434,
      "oid": 1435,
      "sn": 1436,
      "sist": 1437,
      "uine": 1438,
      "itive": 1439,
      "chill": 1440,
      "forget": 1441,
      "maj": 1442,
      "expl": 1443,
      "exist": 1444,
      "odd": 1445,
      "ident": 1446,
      "boy": 1447,
      "credi": 1448,
      "bland": 1449,
      "subst": 1450,
      "genuine": 1451,
      "writing": 1452,
      "ideas": 1453,
      "believe": 1454,
      "treat": 1455,
      "dition": 1456,
      "himself": 1457,
      "formula": 1458,
      "simple": 1459,
      "meaning": 1460,
      "completely": 1461,
      "ordin": 1462,
      "brilliant": 1463,
      "aff": 1464,
      "ek": 1465,
      "sand": 1466,
      "sort": 1467,
      "inno": 1468,
      "recommend": 1469,
      "depress": 1470,
      "having": 1471,
      "creep": 1472,
      "gentle": 1473,
      "standard": 1474,
      "since": 1475,
      "woman": 1476,
      "classic": 1477,
      "terrific": 1478,
      "intriguing": 1479,
      "adventure": 1480,
      "thorough": 1481,
      "camer": 1482,
      "each": 1483,
      "four": 1484,
      "fire": 1485,
      "final": 1486,
      "ken": 1487,
      "nam": 1488,
      "stri": 1489,
      "mood": 1490,
      "except": 1491,
      "quie": 1492,
      "likely": 1493,
      "whose": 1494,
      "ensive": 1495,
      "disappoint": 1496,
      "series": 1497,
      "themselves": 1498,
      "title": 1499,
      "logical": 1500,
      "felt": 1501,
      "above": 1502,
      "dry": 1503,
      "fact": 1504,
      "gags": 1505,
      "ni": 1506,
      "ped": 1507,
      "ru": 1508,
      "side": 1509,
      "wel": 1510,
      "yond": 1511,
      "reve": 1512,
      "beyond": 1513,
      "detail": 1514,
      "fest": 1515,
      "spi": 1516,
      "nest": 1517,
      "worse": 1518,
      "aged": 1519,
      "weird": 1520,
      "inside": 1521,
      "iction": 1522,
      "french": 1523,
      "frustr": 1524,
      "occas": 1525,
      "audiences": 1526,
      "images": 1527,
      "version": 1528,
      "ugly": 1529,
      "turns": 1530,
      "craf": 1531,
      "probably": 1532,
      "mystery": 1533,
      "natural": 1534,
      "camera": 1535,
      "dan": 1536,
      "mr": 1537,
      "ned": 1538,
      "ring": 1539,
      "smo": 1540,
      "slight": 1541,
      "taste": 1542,
      "witt": 1543,
      "ress": 1544,
      "recent": 1545,
      "along": 1546,
      "else": 1547,
      "impro": 1548,
      "amoun": 1549,
      "shot": 1550,
      "exec": 1551,
      "dog": 1552,
      "event": 1553,
      "itting": 1554,
      "beauty": 1555,
      "tention": 1556,
      "viewer": 1557,
      "possib": 1558,
      "spectac": 1559,
      "filmmaker": 1560,
      "warmth": 1561,
      "straight": 1562,
      "found": 1563,
      "oscar": 1564,
      "ric": 1565,
      "tar": 1566,
      "ands": 1567,
      "ched": 1568,
      "become": 1569,
      "unsett": 1570,
      "room": 1571,
      "comb": 1572,
      "comfort": 1573,
      "appro": 1574,
      "potent": 1575,
      "acted": 1576,
      "uses": 1577,
      "trans": 1578,
      "lessly": 1579,
      "grace": 1580,
      "earnest": 1581,
      "looks": 1582,
      "plays": 1583,
      "worthy": 1584,
      "deni": 1585,
      "fails": 1586,
      "usual": 1587,
      "consider": 1588,
      "ama": 1589,
      "bud": 1590,
      "fast": 1591,
      "hn": 1592,
      "jour": 1593,
      "ton": 1594,
      "tly": 1595,
      "tell": 1596,
      "vor": 1597,
      "lee": 1598,
      "leg": 1599,
      "vivid": 1600,
      "absur": 1601,
      "rist": 1602,
      "funn": 1603,
      "bot": 1604,
      "met": 1605,
      "create": 1606,
      "traged": 1607,
      "ize": 1608,
      "ival": 1609,
      "seeing": 1610,
      "imagination": 1611,
      "surprising": 1612,
      "horri": 1613,
      "cliches": 1614,
      "sequences": 1615,
      "ready": 1616,
      "huge": 1617,
      "heavy": 1618,
      "melodrama": 1619,
      "sustain": 1620,
      "relationships": 1621,
      "thoroughly": 1622,
      "ball": 1623,
      "body": 1624,
      "dou": 1625,
      "mes": 1626,
      "male": 1627,
      "pul": 1628,
      "sw": 1629,
      "scho": 1630,
      "anch": 1631,
      "anced": 1632,
      "ened": 1633,
      "thetic": 1634,
      "stun": 1635,
      "accompl": 1636,
      "ung": 1637,
      "debut": 1638,
      "devo": 1639,
      "rip": 1640,
      "spo": 1641,
      "sci": 1642,
      "necess": 1643,
      "quality": 1644,
      "astic": 1645,
      "present": 1646,
      "creative": 1647,
      "john": 1648,
      "visually": 1649,
      "otic": 1650,
      "hood": 1651,
      "shows": 1652,
      "viewers": 1653,
      "animation": 1654,
      "large": 1655,
      "definite": 1656,
      "inspired": 1657,
      "imaginative": 1658,
      "school": 1659,
      "bing": 1660,
      "cop": 1661,
      "fight": 1662,
      "next": 1663,
      "wish": 1664,
      "ya": 1665,
      "reg": 1666,
      "attention": 1667,
      "ase": 1668,
      "chy": 1669,
      "decent": 1670,
      "cele": 1671,
      "shap": 1672,
      "extre": 1673,
      "consc": 1674,
      "goof": 1675,
      "quick": 1676,
      "weight": 1677,
      "ended": 1678,
      "flash": 1679,
      "iously": 1680,
      "storytelling": 1681,
      "crime": 1682,
      "pleasant": 1683,
      "member": 1684,
      "appealing": 1685,
      "resist": 1686,
      "knows": 1687,
      "eyes": 1688,
      "unique": 1689,
      "violence": 1690,
      "fashioned": 1691,
      "major": 1692,
      "unsettling": 1693,
      "90": 1694,
      "bly": 1695,
      "fut": 1696,
      "ging": 1697,
      "lab": 1698,
      "mal": 1699,
      "money": 1700,
      "name": 1701,
      "os": 1702,
      "pure": 1703,
      "rit": 1704,
      "squ": 1705,
      "incl": 1706,
      "atter": 1707,
      "iche": 1708,
      "left": 1709,
      "enty": 1710,
      "develop": 1711,
      "lost": 1712,
      "loss": 1713,
      "forced": 1714,
      "express": 1715,
      "indul": 1716,
      "comedies": 1717,
      "pathetic": 1718,
      "faith": 1719,
      "parents": 1720,
      "winning": 1721,
      "sophistic": 1722,
      "gorgeous": 1723,
      "different": 1724,
      "fantasy": 1725,
      "historical": 1726,
      "budget": 1727,
      "gang": 1728,
      "ined": 1729,
      "inning": 1730,
      "ercise": 1731,
      "stay": 1732,
      "seat": 1733,
      "exercise": 1734,
      "tage": 1735,
      "ellent": 1736,
      "trou": 1737,
      "jokes": 1738,
      "bring": 1739,
      "cool": 1740,
      "wrong": 1741,
      "emotionally": 1742,
      "colle": 1743,
      "brea": 1744,
      "attempt": 1745,
      "rossing": 1746,
      "skill": 1747,
      "friend": 1748,
      "inventive": 1749,
      "attract": 1750,
      "definitely": 1751,
      "bare": 1752,
      "ges": 1753,
      "game": 1754,
      "ii": 1755,
      "lad": 1756,
      "loud": 1757,
      "length": 1758,
      "pack": 1759,
      "tu": 1760,
      "wast": 1761,
      "waste": 1762,
      "inf": 1763,
      "ances": 1764,
      "ont": 1765,
      "stories": 1766,
      "alter": 1767,
      "lies": 1768,
      "role": 1769,
      "whe": 1770,
      "actress": 1771,
      "asty": 1772,
      "tran": 1773,
      "test": 1774,
      "flu": 1775,
      "epis": 1776,
      "offensive": 1777,
      "pair": 1778,
      "favor": 1779,
      "ivity": 1780,
      "watchable": 1781,
      "hope": 1782,
      "observ": 1783,
      "message": 1784,
      "delightful": 1785,
      "thoughtful": 1786,
      "expected": 1787,
      "painful": 1788,
      "finally": 1789,
      "contrived": 1790,
      "fairly": 1791,
      "believable": 1792,
      "colorful": 1793,
      "crafted": 1794,
      "celebr": 1795,
      "bs": 1796,
      "bul": 1797,
      "gro": 1798,
      "kill": 1799,
      "rent": 1800,
      "rate": 1801,
      "table": 1802,
      "tired": 1803,
      "zing": 1804,
      "indi": 1805,
      "onish": 1806,
      "already": 1807,
      "ised": 1808,
      "arn": 1809,
      "edge": 1810,
      "asp": 1811,
      "assu": 1812,
      "ilo": 1813,
      "undeni": 1814,
      "lif": 1815,
      "road": 1816,
      "add": 1817,
      "shar": 1818,
      "spe": 1819,
      "convent": 1820,
      "construct": 1821,
      "scary": 1822,
      "score": 1823,
      "manner": 1824,
      "provo": 1825,
      "greatest": 1826,
      "crit": 1827,
      "desper": 1828,
      "realistic": 1829,
      "scene": 1830,
      "career": 1831,
      "ugg": 1832,
      "truth": 1833,
      "coura": 1834,
      "certainly": 1835,
      "follow": 1836,
      "poorly": 1837,
      "entirely": 1838,
      "ordinary": 1839,
      "sophisticated": 1840,
      "cu": 1841,
      "crow": 1842,
      "either": 1843,
      "ham": 1844,
      "hack": 1845,
      "kno": 1846,
      "mas": 1847,
      "sav": 1848,
      "wan": 1849,
      "intim": 1850,
      "reco": 1851,
      "respect": 1852,
      "stop": 1853,
      "ches": 1854,
      "unity": 1855,
      "mach": 1856,
      "adults": 1857,
      "dio": 1858,
      "shallow": 1859,
      "key": 1860,
      "neither": 1861,
      "words": 1862,
      "bling": 1863,
      "job": 1864,
      "cost": 1865,
      "tries": 1866,
      "imagine": 1867,
      "medi": 1868,
      "pictures": 1869,
      "excellent": 1870,
      "easily": 1871,
      "close": 1872,
      "listic": 1873,
      "sounds": 1874,
      "brain": 1875,
      "endearing": 1876,
      "slopp": 1877,
      "typical": 1878,
      "bust": 1879,
      "city": 1880,
      "date": 1881,
      "fare": 1882,
      "ga": 1883,
      "hit": 1884,
      "ially": 1885,
      "mic": 1886,
      "pacing": 1887,
      "sour": 1888,
      "inst": 1889,
      "invol": 1890,
      "christ": 1891,
      "acc": 1892,
      "sever": 1893,
      "imm": 1894,
      "ulative": 1895,
      "lip": 1896,
      "rive": 1897,
      "spar": 1898,
      "ump": 1899,
      "post": 1900,
      "posed": 1901,
      "social": 1902,
      "thers": 1903,
      "ement": 1904,
      "prec": 1905,
      "open": 1906,
      "mostly": 1907,
      "water": 1908,
      "clear": 1909,
      "medio": 1910,
      "period": 1911,
      "corn": 1912,
      "sexual": 1913,
      "ficial": 1914,
      "masterpiece": 1915,
      "superficial": 1916,
      "complic": 1917,
      "pathy": 1918,
      "particularly": 1919,
      "future": 1920,
      "ago": 1921,
      "home": 1922,
      "lay": 1923,
      "ode": 1924,
      "ography": 1925,
      "sac": 1926,
      "ues": 1927,
      "revel": 1928,
      "atory": 1929,
      "onic": 1930,
      "ley": 1931,
      "change": 1932,
      "els": 1933,
      "elberg": 1934,
      "acking": 1935,
      "und": 1936,
      "ular": 1937,
      "lock": 1938,
      "rap": 1939,
      "rol": 1940,
      "ames": 1941,
      "fear": 1942,
      "appar": 1943,
      "sco": 1944,
      "manip": 1945,
      "usi": 1946,
      "prov": 1947,
      "intent": 1948,
      "atingly": 1949,
      "core": 1950,
      "design": 1951,
      "getic": 1952,
      "bert": 1953,
      "marvel": 1954,
      "ashing": 1955,
      "engrossing": 1956,
      "stylish": 1957,
      "satire": 1958,
      "surprises": 1959,
      "memory": 1960,
      "iculous": 1961,
      "deliver": 1962,
      "clichés": 1963,
      "help": 1964,
      "impressive": 1965,
      "utterly": 1966,
      "depressing": 1967,
      "welcome": 1968,
      "spielberg": 1969,
      "journey": 1970,
      "necessary": 1971,
      "sharp": 1972,
      "crowd": 1973,
      "fat": 1974,
      "flow": 1975,
      "given": 1976,
      "jack": 1977,
      "lacking": 1978,
      "nu": 1979,
      "numb": 1980,
      "ris": 1981,
      "rend": 1982,
      "rical": 1983,
      "var": 1984,
      "vul": 1985,
      "wed": 1986,
      "reson": 1987,
      "remind": 1988,
      "remember": 1989,
      "unf": 1990,
      "unch": 1991,
      "logy": 1992,
      "lives": 1993,
      "ams": 1994,
      "spor": 1995,
      "exact": 1996,
      "conce": 1997,
      "concer": 1998,
      "doing": 1999,
      "working": 2000,
      "pretent": 2001,
      "trash": 2002,
      "hael": 2003,
      "epic": 2004,
      "guil": 2005,
      "desc": 2006,
      "hearted": 2007,
      "tribut": 2008,
      "running": 2009,
      "thinking": 2010,
      "pping": 2011,
      "appeal": 2012,
      "product": 2013,
      "eleg": 2014,
      "counter": 2015,
      "blood": 2016,
      "presents": 2017,
      "ambitious": 2018,
      "absurd": 2019,
      "bottom": 2020,
      "tragedy": 2021,
      "mesmer": 2022,
      "extreme": 2023,
      "pretentious": 2024,
      "ah": 2025,
      "ai": 2026,
      "bi": 2027,
      "during": 2028,
      "eo": 2029,
      "fig": 2030,
      "hou": 2031,
      "hun": 2032,
      "hell": 2033,
      "hip": 2034,
      "ju": 2035,
      "lim": 2036,
      "mart": 2037,
      "pts": 2038,
      "sen": 2039,
      "tw": 2040,
      "wil": 2041,
      "wind": 2042,
      "thusi": 2043,
      "enthusi": 2044,
      "andering": 2045,
      "ali": 2046,
      "iss": 2047,
      "omb": 2048,
      "secre": 2049,
      "filled": 2050,
      "spy": 2051,
      "concl": 2052,
      "umph": 2053,
      "ateur": 2054,
      "someone": 2055,
      "inept": 2056,
      "philo": 2057,
      "brit": 2058,
      "insult": 2059,
      "otherwise": 2060,
      "disco": 2061,
      "realism": 2062,
      "stereo": 2063,
      "triumph": 2064,
      "themes": 2065,
      "days": 2066,
      "moment": 2067,
      "breath": 2068,
      "spiritual": 2069,
      "animated": 2070,
      "sexy": 2071,
      "production": 2072,
      "value": 2073,
      "devast": 2074,
      "creepy": 2075,
      "trouble": 2076,
      "provocative": 2077,
      "tribute": 2078,
      "philosoph": 2079,
      "lust": 2080,
      "mill": 2081,
      "mble": 2082,
      "mild": 2083,
      "nes": 2084,
      "pan": 2085,
      "pal": 2086,
      "rhy": 2087,
      "sick": 2088,
      "wers": 2089,
      "zen": 2090,
      "rema": 2091,
      "stick": 2092,
      "lets": 2093,
      "move": 2094,
      "mother": 2095,
      "sets": 2096,
      "unfunny": 2097,
      "uneven": 2098,
      "absor": 2099,
      "force": 2100,
      "roll": 2101,
      "whim": 2102,
      "fill": 2103,
      "ried": 2104,
      "amateur": 2105,
      "umber": 2106,
      "ider": 2107,
      "usion": 2108,
      "credit": 2109,
      "coher": 2110,
      "mug": 2111,
      "ground": 2112,
      "playing": 2113,
      "achieve": 2114,
      "throughout": 2115,
      "motion": 2116,
      "party": 2117,
      "chees": 2118,
      "belly": 2119,
      "pieces": 2120,
      "succeed": 2121,
      "keeps": 2122,
      "neyed": 2123,
      "leaves": 2124,
      "energetic": 2125,
      "ridiculous": 2126,
      "starts": 2127,
      "captures": 2128,
      "based": 2129,
      "opport": 2130,
      "frame": 2131,
      "affection": 2132,
      "problem": 2133,
      "considerable": 2134,
      "devoid": 2135,
      "whether": 2136,
      "hackneyed": 2137,
      "michael": 2138,
      "rhyth": 2139,
      "remains": 2140,
      "bt": 2141,
      "cour": 2142,
      "eth": 2143,
      "lan": 2144,
      "pace": 2145,
      "pull": 2146,
      "tire": 2147,
      "inct": 2148,
      "indie": 2149,
      "reward": 2150,
      "issu": 2151,
      "arch": 2152,
      "editing": 2153,
      "lik": 2154,
      "conne": 2155,
      "emer": 2156,
      "quis": 2157,
      "astonish": 2158,
      "bored": 2159,
      "guys": 2160,
      "mention": 2161,
      "reality": 2162,
      "comprom": 2163,
      "awful": 2164,
      "centr": 2165,
      "avoid": 2166,
      "emotions": 2167,
      "meditation": 2168,
      "highly": 2169,
      "perfectly": 2170,
      "sensitive": 2171,
      "delivers": 2172,
      "shots": 2173,
      "intrigue": 2174,
      "flaws": 2175,
      "natured": 2176,
      "inspiring": 2177,
      "depth": 2178,
      "strangely": 2179,
      "examination": 2180,
      "purpo": 2181,
      "target": 2182,
      "barely": 2183,
      "house": 2184,
      "tiresome": 2185,
      "ake": 2186,
      "bol": 2187,
      "cere": 2188,
      "dish": 2189,
      "gif": 2190,
      "mist": 2191,
      "nel": 2192,
      "rout": 2193,
      "tag": 2194,
      "tension": 2195,
      "vag": 2196,
      "ency": 2197,
      "atmo": 2198,
      "aly": 2199,
      "entic": 2200,
      "load": 2201,
      "absol": 2202,
      "magic": 2203,
      "commer": 2204,
      "shad": 2205,
      "poign": 2206,
      "events": 2207,
      "intro": 2208,
      "ify": 2209,
      "clum": 2210,
      "deriv": 2211,
      "tele": 2212,
      "justice": 2213,
      "cris": 2214,
      "paint": 2215,
      "served": 2216,
      "achiev": 2217,
      "pointless": 2218,
      "cinematography": 2219,
      "break": 2220,
      "effective": 2221,
      "contem": 2222,
      "against": 2223,
      "needs": 2224,
      "seriously": 2225,
      "couple": 2226,
      "burn": 2227,
      "political": 2228,
      "relev": 2229,
      "stream": 2230,
      "occasionally": 2231,
      "amount": 2232,
      "conscious": 2233,
      "goofy": 2234,
      "indulgent": 2235,
      "atmosp": 2236,
      "absolute": 2237,
      "0s": 2238,
      "cir": 2239,
      "ker": 2240,
      "national": 2241,
      "oto": 2242,
      "pile": 2243,
      "rush": 2244,
      "san": 2245,
      "tick": 2246,
      "ancy": 2247,
      "eness": 2248,
      "stom": 2249,
      "orm": 2250,
      "andon": 2251,
      "icult": 2252,
      "chall": 2253,
      "raw": 2254,
      "sup": 2255,
      "compe": 2256,
      "dies": 2257,
      "word": 2258,
      "emb": 2259,
      "quent": 2260,
      "pecul": 2261,
      "places": 2262,
      "prop": 2263,
      "trick": 2264,
      "iff": 2265,
      "guess": 2266,
      "comedic": 2267,
      "bled": 2268,
      "brings": 2269,
      "earth": 2270,
      "green": 2271,
      "disney": 2272,
      "compass": 2273,
      "bitter": 2274,
      "carto": 2275,
      "monstr": 2276,
      "minded": 2277,
      "mindless": 2278,
      "dazz": 2279,
      "cute": 2280,
      "wonderfully": 2281,
      "eye": 2282,
      "difficult": 2283,
      "shoot": 2284,
      "called": 2285,
      "extraordinary": 2286,
      "position": 2287,
      "techn": 2288,
      "possibly": 2289,
      "mediocre": 2290,
      "manipulative": 2291,
      "exactly": 2292,
      "mesmerizing": 2293,
      "bus": 2294,
      "dv": 2295,
      "ely": 2296,
      "fer": 2297,
      "fish": 2298,
      "gone": 2299,
      "gross": 2300,
      "hom": 2301,
      "hap": 2302,
      "latest": 2303,
      "song": 2304,
      "ude": 2305,
      "thro": 2306,
      "repe": 2307,
      "onder": 2308,
      "stale": 2309,
      "alone": 2310,
      "arily": 2311,
      "lyn": 2312,
      "toward": 2313,
      "ential": 2314,
      "vibr": 2315,
      "termin": 2316,
      "female": 2317,
      "exper": 2318,
      "conv": 2319,
      "alling": 2320,
      "plain": 2321,
      "charis": 2322,
      "tear": 2323,
      "flicks": 2324,
      "created": 2325,
      "blue": 2326,
      "photo": 2327,
      "tragic": 2328,
      "minor": 2329,
      "smile": 2330,
      "front": 2331,
      "avor": 2332,
      "anger": 2333,
      "runs": 2334,
      "turned": 2335,
      "brown": 2336,
      "attle": 2337,
      "glor": 2338,
      "ultimate": 2339,
      "portray": 2340,
      "empty": 2341,
      "rarely": 2342,
      "promise": 2343,
      "virt": 2344,
      "delicate": 2345,
      "situation": 2346,
      "substance": 2347,
      "altern": 2348,
      "transc": 2349,
      "conventional": 2350,
      "sloppy": 2351,
      "designed": 2352,
      "issues": 2353,
      "stomach": 2354,
      "aver": 2355,
      "aks": 2356,
      "band": 2357,
      "bright": 2358,
      "fal": 2359,
      "god": 2360,
      "je": 2361,
      "kward": 2362,
      "push": 2363,
      "sal": 2364,
      "sion": 2365,
      "text": 2366,
      "iny": 2367,
      "anno": 2368,
      "resp": 2369,
      "ison": 2370,
      "sem": 2371,
      "decess": 2372,
      "mad": 2373,
      "living": 2374,
      "adap": 2375,
      "sham": 2376,
      "goers": 2377,
      "predecess": 2378,
      "process": 2379,
      "thanks": 2380,
      "storyline": 2381,
      "meandering": 2382,
      "guy": 2383,
      "phy": 2384,
      "strugg": 2385,
      "crush": 2386,
      "playful": 2387,
      "company": 2388,
      "awkward": 2389,
      "versal": 2390,
      "coll": 2391,
      "dama": 2392,
      "pped": 2393,
      "handed": 2394,
      "america": 2395,
      "cultural": 2396,
      "happy": 2397,
      "elements": 2398,
      "balance": 2399,
      "girls": 2400,
      "beginning": 2401,
      "successful": 2402,
      "usually": 2403,
      "mixed": 2404,
      "twists": 2405,
      "murphy": 2406,
      "escape": 2407,
      "refreshing": 2408,
      "festival": 2409,
      "metap": 2410,
      "complicated": 2411,
      "likable": 2412,
      "blow": 2413,
      "bond": 2414,
      "five": 2415,
      "gun": 2416,
      "gment": 2417,
      "number": 2418,
      "ponder": 2419,
      "rat": 2420,
      "sapp": 2421,
      "tun": 2422,
      "vic": 2423,
      "vap": 2424,
      "inv": 2425,
      "incredi": 2426,
      "onist": 2427,
      "steven": 2428,
      "aspect": 2429,
      "chance": 2430,
      "chang": 2431,
      "across": 2432,
      "beha": 2433,
      "unpleasant": 2434,
      "unexpected": 2435,
      "ulation": 2436,
      "lig": 2437,
      "robert": 2438,
      "suck": 2439,
      "dig": 2440,
      "shop": 2441,
      "exhilar": 2442,
      "appre": 2443,
      "poet": 2444,
      "artific": 2445,
      "embr": 2446,
      "plenty": 2447,
      "protag": 2448,
      "weak": 2449,
      "evocative": 2450,
      "intense": 2451,
      "claim": 2452,
      "ishing": 2453,
      "cred": 2454,
      "tradit": 2455,
      "grat": 2456,
      "warming": 2457,
      "turning": 2458,
      "cipl": 2459,
      "david": 2460,
      "spirited": 2461,
      "universal": 2462,
      "popcorn": 2463,
      "captiv": 2464,
      "signific": 2465,
      "begins": 2466,
      "gripping": 2467,
      "flawed": 2468,
      "twisted": 2469,
      "wildly": 2470,
      "subtlety": 2471,
      "stock": 2472,
      "iveness": 2473,
      "publ": 2474,
      "200": 2475,
      "psychological": 2476,
      "chilling": 2477,
      "witty": 2478,
      "execution": 2479,
      "doubt": 2480,
      "episode": 2481,
      "assured": 2482,
      "breathtaking": 2483,
      "contempor": 2484,
      "virtually": 2485,
      "adapt": 2486,
      "exhilarating": 2487,
      "appreci": 2488,
      "artificial": 2489,
      "protagonist": 2490,
      "ail": 2491,
      "bed": 2492,
      "cross": 2493,
      "eu": 2494,
      "fu": 2495,
      "gay": 2496,
      "games": 2497,
      "hind": 2498,
      "ied": 2499,
      "late": 2500,
      "lame": 2501,
      "liter": 2502,
      "nal": 2503,
      "ners": 2504,
      "ov": 2505,
      "pitch": 2506,
      "sket": 2507,
      "uc": 2508,
      "wick": 2509,
      "yor": 2510,
      "ining": 2511,
      "ines": 2512,
      "reach": 2513,
      "redu": 2514,
      "stage": 2515,
      "ilities": 2516,
      "chopp": 2517,
      "eld": 2518,
      "enter": 2519,
      "accept": 2520,
      "accur": 2521,
      "immedi": 2522,
      "lots": 2523,
      "whol": 2524,
      "novel": 2525,
      "diver": 2526,
      "shoc": 2527,
      "feat": 2528,
      "consist": 2529,
      "quently": 2530,
      "somewhat": 2531,
      "evil": 2532,
      "ups": 2533,
      "means": 2534,
      "creat": 2535,
      "brut": 2536,
      "match": 2537,
      "ires": 2538,
      "olds": 2539,
      "perform": 2540,
      "heartfelt": 2541,
      "motiv": 2542,
      "grade": 2543,
      "frank": 2544,
      "franch": 2545,
      "surprise": 2546,
      "clearly": 2547,
      "monster": 2548,
      "relent": 2549,
      "dress": 2550,
      "sequence": 2551,
      "broad": 2552,
      "americans": 2553,
      "sincere": 2554,
      "stars": 2555,
      "visuals": 2556,
      "single": 2557,
      "skin": 2558,
      "wants": 2559,
      "save": 2560,
      "case": 2561,
      "terrible": 2562,
      "grief": 2563,
      "situations": 2564,
      "forgettable": 2565,
      "spectacle": 2566,
      "approach": 2567,
      "provoking": 2568,
      "intimate": 2569,
      "spark": 2570,
      "sports": 2571,
      "sensu": 2572,
      "twice": 2573,
      "quisite": 2574,
      "commercial": 2575,
      "challeng": 2576,
      "compassion": 2577,
      "sappy": 2578,
      "adaptation": 2579,
      "franchise": 2580,
      "ax": 2581,
      "cell": 2582,
      "cence": 2583,
      "etry": 2584,
      "fright": 2585,
      "foc": 2586,
      "hot": 2587,
      "ives": 2588,
      "jer": 2589,
      "mou": 2590,
      "nasty": 2591,
      "oy": 2592,
      "py": 2593,
      "pin": 2594,
      "round": 2595,
      "sne": 2596,
      "sitting": 2597,
      "smug": 2598,
      "tort": 2599,
      "vy": 2600,
      "vate": 2601,
      "intr": 2602,
      "enorm": 2603,
      "represents": 2604,
      "ingu": 2605,
      "stir": 2606,
      "anders": 2607,
      "alive": 2608,
      "aries": 2609,
      "told": 2610,
      "icking": 2611,
      "unt": 2612,
      "unconvincing": 2613,
      "deal": 2614,
      "vern": 2615,
      "sug": 2616,
      "ries": 2617,
      "among": 2618,
      "share": 2619,
      "outra": 2620,
      "apart": 2621,
      "poetry": 2622,
      "tains": 2623,
      "aust": 2624,
      "indust": 2625,
      "upon": 2626,
      "clu": 2627,
      "bog": 2628,
      "bles": 2629,
      "price": 2630,
      "draw": 2631,
      "disgu": 2632,
      "yourself": 2633,
      "played": 2634,
      "gradu": 2635,
      "humanity": 2636,
      "build": 2637,
      "arring": 2638,
      "relative": 2639,
      "exciting": 2640,
      "distingu": 2641,
      "said": 2642,
      "lazy": 2643,
      "levels": 2644,
      "friends": 2645,
      "suspenseful": 2646,
      "allows": 2647,
      "food": 2648,
      "equally": 2649,
      "block": 2650,
      "gotten": 2651,
      "cruel": 2652,
      "politics": 2653,
      "passionate": 2654,
      "sympathetic": 2655,
      "deserves": 2656,
      "dimens": 2657,
      "oddly": 2658,
      "sandler": 2659,
      "slightly": 2660,
      "accomplished": 2661,
      "wasted": 2662,
      "constructed": 2663,
      "riveting": 2664,
      "amateurish": 2665,
      "purpose": 2666,
      "dazzling": 2667,
      "conviction": 2668,
      "annoying": 2669,
      "industry": 2670,
      "bound": 2671,
      "egr": 2672,
      "flo": 2673,
      "gut": 2674,
      "gust": 2675,
      "hall": 2676,
      "jud": 2677,
      "mc": 2678,
      "pic": 2679,
      "rous": 2680,
      "si": 2681,
      "sive": 2682,
      "thentic": 2683,
      "inc": 2684,
      "endid": 2685,
      "oring": 2686,
      "arity": 2687,
      "asm": 2688,
      "chem": 2689,
      "unnecessary": 2690,
      "decept": 2691,
      "determin": 2692,
      "vior": 2693,
      "urban": 2694,
      "preach": 2695,
      "authentic": 2696,
      "provide": 2697,
      "notice": 2698,
      "integr": 2699,
      "joke": 2700,
      "trade": 2701,
      "gress": 2702,
      "badly": 2703,
      "realized": 2704,
      "frequently": 2705,
      "humorous": 2706,
      "sitcom": 2707,
      "worthwhile": 2708,
      "hardly": 2709,
      "originality": 2710,
      "tedious": 2711,
      "succum": 2712,
      "general": 2713,
      "generic": 2714,
      "contin": 2715,
      "graphic": 2716,
      "subjects": 2717,
      "distinct": 2718,
      "south": 2719,
      "leads": 2720,
      "profess": 2721,
      "profound": 2722,
      "drug": 2723,
      "drown": 2724,
      "suffers": 2725,
      "splendid": 2726,
      "affir": 2727,
      "striking": 2728,
      "quiet": 2729,
      "regard": 2730,
      "flashy": 2731,
      "attractive": 2732,
      "lady": 2733,
      "undeniably": 2734,
      "sacri": 2735,
      "philosophical": 2736,
      "absorbing": 2737,
      "cheesy": 2738,
      "derivative": 2739,
      "vibrant": 2740,
      "vapid": 2741,
      "behavior": 2742,
      "public": 2743,
      "contemporary": 2744,
      "suggest": 2745,
      "aking": 2746,
      "biz": 2747,
      "brid": 2748,
      "bio": 2749,
      "dled": 2750,
      "fying": 2751,
      "fiction": 2752,
      "pit": 2753,
      "sess": 2754,
      "tor": 2755,
      "ture": 2756,
      "tally": 2757,
      "tender": 2758,
      "uit": 2759,
      "uck": 2760,
      "vamp": 2761,
      "xic": 2762,
      "yarn": 2763,
      "ino": 2764,
      "inner": 2765,
      "analy": 2766,
      "ero": 2767,
      "recor": 2768,
      "itable": 2769,
      "totally": 2770,
      "icate": 2771,
      "behind": 2772,
      "unk": 2773,
      "demonstr": 2774,
      "forgotten": 2775,
      "liber": 2776,
      "uted": 2777,
      "supp": 2778,
      "nox": 2779,
      "ades": 2780,
      "adult": 2781,
      "exp": 2782,
      "ousy": 2783,
      "soon": 2784,
      "actic": 2785,
      "ager": 2786,
      "aster": 2787,
      "proper": 2788,
      "funct": 2789,
      "meas": 2790,
      "creates": 2791,
      "blade": 2792,
      "offering": 2793,
      "prim": 2794,
      "dramat": 2795,
      "gry": 2796,
      "ensemble": 2797,
      "overcome": 2798,
      "crack": 2799,
      "paper": 2800,
      "plod": 2801,
      "talents": 2802,
      "ashed": 2803,
      "lovely": 2804,
      "trip": 2805,
      "interested": 2806,
      "obnox": 2807,
      "maybe": 2808,
      "standing": 2809,
      "trem": 2810,
      "missed": 2811,
      "sink": 2812,
      "excit": 2813,
      "skip": 2814,
      "sheer": 2815,
      "delightfully": 2816,
      "barrel": 2817,
      "logic": 2818,
      "shock": 2819,
      "country": 2820,
      "adequ": 2821,
      "holds": 2822,
      "attraction": 2823,
      "sequels": 2824,
      "admir": 2825,
      "identity": 2826,
      "genuinely": 2827,
      "innocence": 2828,
      "revealing": 2829,
      "frustrating": 2830,
      "amazing": 2831,
      "funnier": 2832,
      "quickly": 2833,
      "includ": 2834,
      "bullock": 2835,
      "curi": 2836,
      "wanna": 2837,
      "recogn": 2838,
      "involving": 2839,
      "several": 2840,
      "guilty": 2841,
      "achievement": 2842,
      "opportunity": 2843,
      "course": 2844,
      "langu": 2845,
      "compromising": 2846,
      "central": 2847,
      "supposed": 2848,
      "average": 2849,
      "false": 2850,
      "blockbust": 2851,
      "dimensional": 2852,
      "bum": 2853,
      "bag": 2854,
      "bow": 2855,
      "bold": 2856,
      "cand": 2857,
      "cks": 2858,
      "came": 2859,
      "dare": 2860,
      "fit": 2861,
      "fly": 2862,
      "fur": 2863,
      "jap": 2864,
      "jum": 2865,
      "nich": 2866,
      "ost": 2867,
      "ose": 2868,
      "pick": 2869,
      "ron": 2870,
      "slee": 2871,
      "tes": 2872,
      "wis": 2873,
      "rece": 2874,
      "requ": 2875,
      "remake": 2876,
      "stat": 2877,
      "ision": 2878,
      "iler": 2879,
      "cha": 2880,
      "elo": 2881,
      "access": 2882,
      "seag": 2883,
      "vest": 2884,
      "loses": 2885,
      "liked": 2886,
      "ray": 2887,
      "white": 2888,
      "sud": 2889,
      "suspect": 2890,
      "filling": 2891,
      "addition": 2892,
      "spot": 2893,
      "spider": 2894,
      "exquisite": 2895,
      "ants": 2896,
      "empathy": 2897,
      "agger": 2898,
      "track": 2899,
      "istry": 2900,
      "haun": 2901,
      "upt": 2902,
      "cliche": 2903,
      "bother": 2904,
      "boys": 2905,
      "teach": 2906,
      "flin": 2907,
      "iety": 2908,
      "grou": 2909,
      "grant": 2910,
      "canny": 2911,
      "ensions": 2912,
      "surface": 2913,
      "crass": 2914,
      "orting": 2915,
      "wrence": 2916,
      "wrought": 2917,
      "iza": 2918,
      "izes": 2919,
      "talking": 2920,
      "ache": 2921,
      "iving": 2922,
      "udlin": 2923,
      "award": 2924,
      "object": 2925,
      "gently": 2926,
      "laughter": 2927,
      "holes": 2928,
      "pleasing": 2929,
      "downright": 2930,
      "arrass": 2931,
      "spective": 2932,
      "cycl": 2933,
      "generally": 2934,
      "studio": 2935,
      "musical": 2936,
      "witch": 2937,
      "daring": 2938,
      "elessly": 2939,
      "delights": 2940,
      "puts": 2941,
      "lawrence": 2942,
      "structure": 2943,
      "painfully": 2944,
      "promising": 2945,
      "deadly": 2946,
      "remarkably": 2947,
      "slapstick": 2948,
      "question": 2949,
      "questions": 2950,
      "presence": 2951,
      "demands": 2952,
      "affair": 2953,
      "standards": 2954,
      "niro": 2955,
      "appropri": 2956,
      "funniest": 2957,
      "accomplish": 2958,
      "attered": 2959,
      "development": 2960,
      "college": 2961,
      "knock": 2962,
      "resonant": 2963,
      "extremely": 2964,
      "figure": 2965,
      "alien": 2966,
      "coherent": 2967,
      "rewarding": 2968,
      "embarrass": 2969,
      "peculiar": 2970,
      "dvd": 2971,
      "repetit": 2972,
      "respons": 2973,
      "damage": 2974,
      "choppy": 2975,
      "performers": 2976,
      "until": 2977,
      "chemistry": 2978,
      "preachy": 2979,
      "including": 2980,
      "seagal": 2981,
      "**": 2982,
      "ains": 2983,
      "aise": 2984,
      "battle": 2985,
      "cro": 2986,
      "dom": 2987,
      "fac": 2988,
      "hen": 2989,
      "hate": 2990,
      "hide": 2991,
      "hmer": 2992,
      "ja": 2993,
      "jol": 2994,
      "kis": 2995,
      "kore": 2996,
      "mass": 2997,
      "mult": 2998,
      "oo": 2999,
      "otage": 3000,
      "pian": 3001,
      "paced": 3002,
      "rand": 3003,
      "sell": 3004,
      "sight": 3005,
      "slip": 3006,
      "tro": 3007,
      "udes": 3008,
      "wall": 3009,
      "yes": 3010,
      "zone": 3011,
      "thous": 3012,
      "reck": 3013,
      "reven": 3014,
      "recycl": 3015,
      "oning": 3016,
      "onscreen": 3017,
      "ingen": 3018,
      "stal": 3019,
      "store": 3020,
      "starring": 3021,
      "oration": 3022,
      "itude": 3023,
      "although": 3024,
      "educ": 3025,
      "sea": 3026,
      "bears": 3027,
      "vides": 3028,
      "mag": 3029,
      "lie": 3030,
      "rob": 3031,
      "noir": 3032,
      "dir": 3033,
      "irre": 3034,
      "fears": 3035,
      "exceed": 3036,
      "moviegoers": 3037,
      "conj": 3038,
      "ape": 3039,
      "apl": 3040,
      "umin": 3041,
      "scale": 3042,
      "pos": 3043,
      "neg": 3044,
      "arts": 3045,
      "allen": 3046,
      "ared": 3047,
      "previous": 3048,
      "provides": 3049,
      "oping": 3050,
      "eping": 3051,
      "woo": 3052,
      "intoxic": 3053,
      "offer": 3054,
      "drawn": 3055,
      "timely": 3056,
      "willing": 3057,
      "loose": 3058,
      "writ": 3059,
      "ideal": 3060,
      "getting": 3061,
      "merit": 3062,
      "merely": 3063,
      "ived": 3064,
      "heartwarming": 3065,
      "directors": 3066,
      "free": 3067,
      "answers": 3068,
      "casting": 3069,
      "buck": 3070,
      "cliched": 3071,
      "cyn": 3072,
      "giant": 3073,
      "cutting": 3074,
      "field": 3075,
      "control": 3076,
      "theatrical": 3077,
      "masterful": 3078,
      "happen": 3079,
      "simplistic": 3080,
      "soundtrack": 3081,
      "mainstream": 3082,
      "footage": 3083,
      "held": 3084,
      "murder": 3085,
      "inspiration": 3086,
      "problems": 3087,
      "dreams": 3088,
      "channel": 3089,
      "decades": 3090,
      "demand": 3091,
      "growing": 3092,
      "treatment": 3093,
      "malaise": 3094,
      "faithful": 3095,
      "observations": 3096,
      "grown": 3097,
      "precious": 3098,
      "revelatory": 3099,
      "scope": 3100,
      "fatal": 3101,
      "vulgar": 3102,
      "unfolds": 3103,
      "conclusion": 3104,
      "british": 3105,
      "devastating": 3106,
      "mildly": 3107,
      "gifted": 3108,
      "shadow": 3109,
      "achieves": 3110,
      "business": 3111,
      "metaphor": 3112,
      "digital": 3113,
      "credits": 3114,
      "2002": 3115,
      "creativity": 3116,
      "trademark": 3117,
      "vampire": 3118,
      "japan": 3119,
      "flinching": 3120,
      "kissing": 3121,
      "revenge": 3122,
      "30": 3123,
      "cus": 3124,
      "card": 3125,
      "camp": 3126,
      "daugh": 3127,
      "eur": 3128,
      "fro": 3129,
      "factor": 3130,
      "gid": 3131,
      "hes": 3132,
      "jason": 3133,
      "lousy": 3134,
      "sun": 3135,
      "saw": 3136,
      "tough": 3137,
      "zed": 3138,
      "zzy": 3139,
      "throw": 3140,
      "ina": 3141,
      "incess": 3142,
      "orious": 3143,
      "ices": 3144,
      "lest": 3145,
      "modest": 3146,
      "entially": 3147,
      "season": 3148,
      "unpredictable": 3149,
      "uninspired": 3150,
      "unlikable": 3151,
      "abandon": 3152,
      "format": 3153,
      "maudlin": 3154,
      "lived": 3155,
      "root": 3156,
      "wife": 3157,
      "ador": 3158,
      "ament": 3159,
      "essentially": 3160,
      "shif": 3161,
      "geor": 3162,
      "confl": 3163,
      "content": 3164,
      "pot": 3165,
      "dow": 3166,
      "agers": 3167,
      "urable": 3168,
      "aud": 3169,
      "note": 3170,
      "notch": 3171,
      "somehow": 3172,
      "somewhere": 3173,
      "trite": 3174,
      "clim": 3175,
      "clarity": 3176,
      "team": 3177,
      "lessness": 3178,
      "strict": 3179,
      "travel": 3180,
      "mature": 3181,
      "mud": 3182,
      "others": 3183,
      "patho": 3184,
      "wry": 3185,
      "viscer": 3186,
      "impact": 3187,
      "spirits": 3188,
      "check": 3189,
      "biggest": 3190,
      "missing": 3191,
      "dreary": 3192,
      "stein": 3193,
      "results": 3194,
      "viewing": 3195,
      "fied": 3196,
      "voice": 3197,
      "barber": 3198,
      "sides": 3199,
      "teenagers": 3200,
      "count": 3201,
      "refer": 3202,
      "mixture": 3203,
      "punch": 3204,
      "confusing": 3205,
      "dynam": 3206,
      "pati": 3207,
      "depend": 3208,
      "suffering": 3209,
      "refreshingly": 3210,
      "meaningful": 3211,
      "innov": 3212,
      "reveals": 3213,
      "detailed": 3214,
      "improve": 3215,
      "improvis": 3216,
      "combination": 3217,
      "faster": 3218,
      "horrible": 3219,
      "largely": 3220,
      "osity": 3221,
      "undant": 3222,
      "marvelous": 3223,
      "descri": 3224,
      "discovery": 3225,
      "succeeds": 3226,
      "rhythms": 3227,
      "routine": 3228,
      "clums": 3229,
      "relevant": 3230,
      "absolutely": 3231,
      "competent": 3232,
      "cartoon": 3233,
      "guns": 3234,
      "york": 3235,
      "gradually": 3236,
      "professional": 3237,
      "analyze": 3238,
      "obnoxious": 3239,
      "excitement": 3240,
      "haunting": 3241,
      "dirty": 3242,
      "daughter": 3243,
      "bon": 3244,
      "bir": 3245,
      "baf": 3246,
      "bomb": 3247,
      "dol": 3248,
      "dying": 3249,
      "eve": 3250,
      "eff": 3251,
      "hoff": 3252,
      "idi": 3253,
      "jones": 3254,
      "junk": 3255,
      "lon": 3256,
      "lush": 3257,
      "mil": 3258,
      "mir": 3259,
      "nif": 3260,
      "smar": 3261,
      "za": 3262,
      "inher": 3263,
      "anks": 3264,
      "ene": 3265,
      "encounter": 3266,
      "remo": 3267,
      "revol": 3268,
      "theme": 3269,
      "ator": 3270,
      "stic": 3271,
      "orient": 3272,
      "tool": 3273,
      "omination": 3274,
      "ils": 3275,
      "chase": 3276,
      "acle": 3277,
      "unimaginative": 3278,
      "uncompromising": 3279,
      "vey": 3280,
      "deem": 3281,
      "depict": 3282,
      "viously": 3283,
      "ram": 3284,
      "uter": 3285,
      "whom": 3286,
      "superi": 3287,
      "filmed": 3288,
      "essence": 3289,
      "shre": 3290,
      "spic": 3291,
      "spent": 3292,
      "spare": 3293,
      "spring": 3294,
      "excess": 3295,
      "contra": 3296,
      "scot": 3297,
      "sober": 3298,
      "ante": 3299,
      "endure": 3300,
      "endless": 3301,
      "ists": 3302,
      "hair": 3303,
      "ops": 3304,
      "upper": 3305,
      "bore": 3306,
      "itted": 3307,
      "flair": 3308,
      "offbeat": 3309,
      "discipl": 3310,
      "cry": 3311,
      "genial": 3312,
      "father": 3313,
      "dub": 3314,
      "dual": 3315,
      "directorial": 3316,
      "computer": 3317,
      "holo": 3318,
      "ored": 3319,
      "newcom": 3320,
      "obsess": 3321,
      "igni": 3322,
      "please": 3323,
      "points": 3324,
      "enjoyed": 3325,
      "aked": 3326,
      "intellect": 3327,
      "thrills": 3328,
      "buoy": 3329,
      "finds": 3330,
      "finding": 3331,
      "crap": 3332,
      "crazy": 3333,
      "sumpt": 3334,
      "deftly": 3335,
      "witless": 3336,
      "persona": 3337,
      "personality": 3338,
      "commun": 3339,
      "safe": 3340,
      "superb": 3341,
      "cleverly": 3342,
      "listless": 3343,
      "structured": 3344,
      "ticket": 3345,
      "balanced": 3346,
      "sentimentality": 3347,
      "insightful": 3348,
      "dragon": 3349,
      "honestly": 3350,
      "luck": 3351,
      "nicely": 3352,
      "extravag": 3353,
      "crude": 3354,
      "lines": 3355,
      "stret": 3356,
      "confident": 3357,
      "benigni": 3358,
      "particular": 3359,
      "exploration": 3360,
      "occasional": 3361,
      "smoo": 3362,
      "amounts": 3363,
      "comfortable": 3364,
      "potentially": 3365,
      "ivalent": 3366,
      "courage": 3367,
      "instantly": 3368,
      "apparent": 3369,
      "concern": 3370,
      "secret": 3371,
      "luster": 3372,
      "connect": 3373,
      "television": 3374,
      "aspects": 3375,
      "changing": 3376,
      "poetic": 3377,
      "wickedly": 3378,
      "wholly": 3379,
      "challenging": 3380,
      "stirring": 3381,
      "outrageous": 3382,
      "wannabe": 3383,
      "writers": 3384,
      "george": 3385,
      "hoffman": 3386,
      "smarter": 3387,
      "superior": 3388,
      "bil": 3389,
      "bers": 3390,
      "ders": 3391,
      "dick": 3392,
      "eath": 3393,
      "eager": 3394,
      "fou": 3395,
      "gory": 3396,
      "ggy": 3397,
      "hem": 3398,
      "kins": 3399,
      "mile": 3400,
      "oks": 3401,
      "pom": 3402,
      "pse": 3403,
      "sar": 3404,
      "sical": 3405,
      "tong": 3406,
      "tasty": 3407,
      "vill": 3408,
      "washing": 3409,
      "tha": 3410,
      "incon": 3411,
      "era": 3412,
      "enthr": 3413,
      "reli": 3414,
      "remain": 3415,
      "thes": 3416,
      "leep": 3417,
      "ask": 3418,
      "assur": 3419,
      "unoriginal": 3420,
      "dee": 3421,
      "losing": 3422,
      "forces": 3423,
      "mare": 3424,
      "magn": 3425,
      "liday": 3426,
      "raise": 3427,
      "common": 3428,
      "terms": 3429,
      "territ": 3430,
      "wide": 3431,
      "adam": 3432,
      "adren": 3433,
      "amy": 3434,
      "shame": 3435,
      "kevin": 3436,
      "irresist": 3437,
      "perspective": 3438,
      "spend": 3439,
      "conspir": 3440,
      "condition": 3441,
      "odds": 3442,
      "poster": 3443,
      "ague": 3444,
      "preh": 3445,
      "taken": 3446,
      "evol": 3447,
      "indu": 3448,
      "ified": 3449,
      "bodies": 3450,
      "flavor": 3451,
      "intoler": 3452,
      "trap": 3453,
      "ensible": 3454,
      "ears": 3455,
      "overly": 3456,
      "overall": 3457,
      "survi": 3458,
      "disgust": 3459,
      "international": 3460,
      "scream": 3461,
      "worked": 3462,
      "marks": 3463,
      "martha": 3464,
      "fake": 3465,
      "visit": 3466,
      "wars": 3467,
      "myth": 3468,
      "holiday": 3469,
      "longer": 3470,
      "plotting": 3471,
      "park": 3472,
      "bigger": 3473,
      "ciful": 3474,
      "monty": 3475,
      "slice": 3476,
      "tread": 3477,
      "minds": 3478,
      "appalling": 3479,
      "setting": 3480,
      "buff": 3481,
      "dread": 3482,
      "brothers": 3483,
      "appear": 3484,
      "sweetly": 3485,
      "corny": 3486,
      "views": 3487,
      "community": 3488,
      "excuse": 3489,
      "graphed": 3490,
      "glory": 3491,
      "charmless": 3492,
      "titles": 3493,
      "ificent": 3494,
      "teenage": 3495,
      "sensational": 3496,
      "larger": 3497,
      "fool": 3498,
      "brilliantly": 3499,
      "complexity": 3500,
      "199": 3501,
      "positive": 3502,
      "affecting": 3503,
      "italian": 3504,
      "hopkins": 3505,
      "sympathy": 3506,
      "soulful": 3507,
      "touches": 3508,
      "beneath": 3509,
      "understanding": 3510,
      "ambition": 3511,
      "deserve": 3512,
      "fanciful": 3513,
      "nightmare": 3514,
      "formulaic": 3515,
      "finale": 3516,
      "exceptional": 3517,
      "quietly": 3518,
      "potential": 3519,
      "fights": 3520,
      "friendship": 3521,
      "favorite": 3522,
      "killer": 3523,
      "undeniable": 3524,
      "christmas": 3525,
      "elegance": 3526,
      "enthusiasm": 3527,
      "stereotypical": 3528,
      "whimsical": 3529,
      "poignancy": 3530,
      "introdu": 3531,
      "atmosphere": 3532,
      "songs": 3533,
      "transcend": 3534,
      "victim": 3535,
      "incredibly": 3536,
      "captivating": 3537,
      "ovich": 3538,
      "motivated": 3539,
      "enormously": 3540,
      "clueless": 3541,
      "relatively": 3542,
      "affirming": 3543,
      "plodding": 3544,
      "tremend": 3545,
      "group": 3546,
      "visceral": 3547,
      "buoyant": 3548,
      "foul": 3549,
      "washington": 3550,
      "magnificent": 3551,
      "territory": 3552,
      "adrenal": 3553,
      "aa": 3554,
      "aus": 3555,
      "bri": 3556,
      "bone": 3557,
      "bang": 3558,
      "bunch": 3559,
      "dash": 3560,
      "fif": 3561,
      "gloss": 3562,
      "han": 3563,
      "hic": 3564,
      "hur": 3565,
      "hid": 3566,
      "jag": 3567,
      "knew": 3568,
      "lit": 3569,
      "lud": 3570,
      "limp": 3571,
      "mac": 3572,
      "moun": 3573,
      "nation": 3574,
      "oky": 3575,
      "port": 3576,
      "rac": 3577,
      "rupt": 3578,
      "sno": 3579,
      "sod": 3580,
      "swal": 3581,
      "tish": 3582,
      "incre": 3583,
      "return": 3584,
      "retread": 3585,
      "theart": 3586,
      "org": 3587,
      "itative": 3588,
      "itivity": 3589,
      "ander": 3590,
      "arc": 3591,
      "arre": 3592,
      "ario": 3593,
      "lyrical": 3594,
      "town": 3595,
      "eddie": 3596,
      "icient": 3597,
      "icrous": 3598,
      "unab": 3599,
      "unful": 3600,
      "uncomm": 3601,
      "unflinching": 3602,
      "vehic": 3603,
      "imitation": 3604,
      "lop": 3605,
      "ghost": 3606,
      "max": 3607,
      "verse": 3608,
      "whate": 3609,
      "terror": 3610,
      "rib": 3611,
      "distr": 3612,
      "shy": 3613,
      "gem": 3614,
      "pered": 3615,
      "spell": 3616,
      "const": 3617,
      "consu": 3618,
      "scors": 3619,
      "artistic": 3620,
      "acts": 3621,
      "anti": 3622,
      "eman": 3623,
      "empts": 3624,
      "qual": 3625,
      "asts": 3626,
      "urous": 3627,
      "usive": 3628,
      "author": 3629,
      "placed": 3630,
      "proceed": 3631,
      "heal": 3632,
      "wea": 3633,
      "wever": 3634,
      "week": 3635,
      "characteriz": 3636,
      "flim": 3637,
      "creation": 3638,
      "overlong": 3639,
      "overwrought": 3640,
      "surround": 3641,
      "disaster": 3642,
      "crim": 3643,
      "plots": 3644,
      "minis": 3645,
      "marg": 3646,
      "hearts": 3647,
      "seeking": 3648,
      "however": 3649,
      "parts": 3650,
      "pleaser": 3651,
      "pressed": 3652,
      "carried": 3653,
      "capable": 3654,
      "aky": 3655,
      "slick": 3656,
      "sweeping": 3657,
      "kiddie": 3658,
      "fortun": 3659,
      "generation": 3660,
      "stuck": 3661,
      "resol": 3662,
      "queen": 3663,
      "fix": 3664,
      "polished": 3665,
      "smartly": 3666,
      "attempts": 3667,
      "animal": 3668,
      "ibility": 3669,
      "glimp": 3670,
      "halfway": 3671,
      "produced": 3672,
      "needed": 3673,
      "walk": 3674,
      "eyed": 3675,
      "laz": 3676,
      "sadness": 3677,
      "values": 3678,
      "failure": 3679,
      "convinced": 3680,
      "fantastic": 3681,
      "equal": 3682,
      "equivalent": 3683,
      "signs": 3684,
      "service": 3685,
      "grandeur": 3686,
      "current": 3687,
      "seconds": 3688,
      "considered": 3689,
      "difference": 3690,
      "drive": 3691,
      "releas": 3692,
      "release": 3693,
      "heaven": 3694,
      "pays": 3695,
      "example": 3696,
      "techno": 3697,
      "types": 3698,
      "existential": 3699,
      "credible": 3700,
      "disappointing": 3701,
      "spectacular": 3702,
      "vividly": 3703,
      "spooky": 3704,
      "science": 3705,
      "stays": 3706,
      "collection": 3707,
      "breaking": 3708,
      "celebration": 3709,
      "critical": 3710,
      "various": 3711,
      "martin": 3712,
      "secrets": 3713,
      "discover": 3714,
      "stereotypes": 3715,
      "emerges": 3716,
      "guessing": 3717,
      "technically": 3718,
      "homage": 3719,
      "experiment": 3720,
      "charisma": 3721,
      "photography": 3722,
      "alternative": 3723,
      "shocking": 3724,
      "brutal": 3725,
      "frightening": 3726,
      "mouth": 3727,
      "intricate": 3728,
      "disguise": 3729,
      "bizarre": 3730,
      "further": 3731,
      "accessible": 3732,
      "sudden": 3733,
      "appropriate": 3734,
      "multi": 3735,
      "exceedingly": 3736,
      "conflict": 3737,
      "barbershop": 3738,
      "references": 3739,
      "patience": 3740,
      "clumsily": 3741,
      "baffl": 3742,
      "remote": 3743,
      "newcomer": 3744,
      "sumptuous": 3745,
      "dickens": 3746,
      "ludicrous": 3747,
      "uncommonly": 3748,
      "vehicle": 3749,
      "whatever": 3750,
      "scorsese": 3751,
      "12": 3752,
      "bour": 3753,
      "bility": 3754,
      "cable": 3755,
      "cath": 3756,
      "ded": 3757,
      "dys": 3758,
      "eer": 3759,
      "east": 3760,
      "ets": 3761,
      "evid": 3762,
      "faced": 3763,
      "gap": 3764,
      "idio": 3765,
      "jim": 3766,
      "jul": 3767,
      "kin": 3768,
      "lun": 3769,
      "niche": 3770,
      "og": 3771,
      "swo": 3772,
      "tend": 3773,
      "tack": 3774,
      "uel": 3775,
      "vas": 3776,
      "wd": 3777,
      "wow": 3778,
      "willi": 3779,
      "zard": 3780,
      "zero": 3781,
      "zog": 3782,
      "thre": 3783,
      "thumb": 3784,
      "third": 3785,
      "inh": 3786,
      "incom": 3787,
      "ann": 3788,
      "enced": 3789,
      "reminis": 3790,
      "theless": 3791,
      "onto": 3792,
      "stin": 3793,
      "alle": 3794,
      "escent": 3795,
      "ises": 3796,
      "toss": 3797,
      "ilt": 3798,
      "chuck": 3799,
      "acity": 3800,
      "bear": 3801,
      "unusual": 3802,
      "unfortun": 3803,
      "viet": 3804,
      "forts": 3805,
      "forgive": 3806,
      "rope": 3807,
      "rote": 3808,
      "roph": 3809,
      "whel": 3810,
      "sugar": 3811,
      "adol": 3812,
      "ambig": 3813,
      "div": 3814,
      "keen": 3815,
      "geously": 3816,
      "exposition": 3817,
      "ument": 3818,
      "soggy": 3819,
      "antial": 3820,
      "usal": 3821,
      "peter": 3822,
      "height": 3823,
      "weep": 3824,
      "tricks": 3825,
      "istent": 3826,
      "intended": 3827,
      "clin": 3828,
      "itty": 3829,
      "creating": 3830,
      "woe": 3831,
      "herzog": 3832,
      "directing": 3833,
      "proud": 3834,
      "strength": 3835,
      "insane": 3836,
      "cohes": 3837,
      "evening": 3838,
      "estab": 3839,
      "ensity": 3840,
      "dispos": 3841,
      "crud": 3842,
      "paul": 3843,
      "serves": 3844,
      "market": 3845,
      "achingly": 3846,
      "warri": 3847,
      "efforts": 3848,
      "lingering": 3849,
      "host": 3850,
      "hole": 3851,
      "hoot": 3852,
      "obviously": 3853,
      "cheese": 3854,
      "pleasures": 3855,
      "pleasurable": 3856,
      "satir": 3857,
      "mayhem": 3858,
      "slim": 3859,
      "slack": 3860,
      "trees": 3861,
      "collect": 3862,
      "mission": 3863,
      "craw": 3864,
      "morvern": 3865,
      "broom": 3866,
      "makers": 3867,
      "result": 3868,
      "cuts": 3869,
      "younger": 3870,
      "poll": 3871,
      "police": 3872,
      "satisfied": 3873,
      "extended": 3874,
      "theaters": 3875,
      "distance": 3876,
      "experiences": 3877,
      "cloying": 3878,
      "logically": 3879,
      "happens": 3880,
      "happiness": 3881,
      "happening": 3882,
      "richer": 3883,
      "sorrow": 3884,
      "familial": 3885,
      "maintain": 3886,
      "callar": 3887,
      "startling": 3888,
      "basic": 3889,
      "harsh": 3890,
      "begin": 3891,
      "adventurous": 3892,
      "refusal": 3893,
      "exploitation": 3894,
      "nonsense": 3895,
      "wait": 3896,
      "waiting": 3897,
      "drum": 3898,
      "mysterious": 3899,
      "damn": 3900,
      "damned": 3901,
      "hugh": 3902,
      "folks": 3903,
      "driven": 3904,
      "street": 3905,
      "private": 3906,
      "melodramatic": 3907,
      "delicious": 3908,
      "explic": 3909,
      "meaningless": 3910,
      "details": 3911,
      "comfortably": 3912,
      "swim": 3913,
      "stunt": 3914,
      "stunning": 3915,
      "presented": 3916,
      "gangster": 3917,
      "bringing": 3918,
      "packed": 3919,
      "hopeful": 3920,
      "indian": 3921,
      "speak": 3922,
      "desperately": 3923,
      "machine": 3924,
      "christian": 3925,
      "accents": 3926,
      "wedding": 3927,
      "reminds": 3928,
      "insulting": 3929,
      "rhythm": 3930,
      "pulls": 3931,
      "connection": 3932,
      "poignant": 3933,
      "crisp": 3934,
      "atmospher": 3935,
      "predecessor": 3936,
      "collap": 3937,
      "sketchy": 3938,
      "determined": 3939,
      "admirable": 3940,
      "embarrassment": 3941,
      "repetitive": 3942,
      "korea": 3943,
      "intoxicating": 3944,
      "demanding": 3945,
      "kissinger": 3946,
      "enetr": 3947,
      "revolution": 3948,
      "villain": 3949,
      "tremendous": 3950,
      "reminiscent": 3951,
      "vietnam": 3952,
      "akes": 3953,
      "bid": 3954,
      "cil": 3955,
      "cam": 3956,
      "dul": 3957,
      "dust": 3958,
      "dime": 3959,
      "danger": 3960,
      "eat": 3961,
      "ego": 3962,
      "eks": 3963,
      "eky": 3964,
      "fing": 3965,
      "fle": 3966,
      "fud": 3967,
      "gold": 3968,
      "gender": 3969,
      "gasp": 3970,
      "hat": 3971,
      "hed": 3972,
      "ka": 3973,
      "lat": 3974,
      "nic": 3975,
      "nomination": 3976,
      "oli": 3977,
      "pil": 3978,
      "pity": 3979,
      "pale": 3980,
      "rank": 3981,
      "ske": 3982,
      "tap": 3983,
      "uce": 3984,
      "uity": 3985,
      "vs": 3986,
      "van": 3987,
      "vity": 3988,
      "vital": 3989,
      "xx": 3990,
      "yingly": 3991,
      "zingly": 3992,
      "inexplic": 3993,
      "anet": 3994,
      "enh": 3995,
      "enom": 3996,
      "enha": 3997,
      "enching": 3998,
      "regre": 3999,
      "resem": 4000,
      "atic": 4001,
      "stim": 4002,
      "orous": 4003,
      "arg": 4004,
      "today": 4005,
      "edit": 4006,
      "edited": 4007,
      "icon": 4008,
      "learn": 4009,
      "asingly": 4010,
      "cher": 4011,
      "acious": 4012,
      "sees": 4013,
      "unner": 4014,
      "unforced": 4015,
      "uncanny": 4016,
      "improb": 4017,
      "deed": 4018,
      "ulated": 4019,
      "loc": 4020,
      "forward": 4021,
      "roc": 4022,
      "rot": 4023,
      "suit": 4024,
      "riot": 4025,
      "adver": 4026,
      "ctim": 4027,
      "dign": 4028,
      "shan": 4029,
      "irony": 4030,
      "yous": 4031,
      "space": 4032,
      "ume": 4033,
      "scrat": 4034,
      "poke": 4035,
      "powers": 4036,
      "doze": 4037,
      "emp": 4038,
      "romp": 4039,
      "butt": 4040,
      "manage": 4041,
      "astound": 4042,
      "urday": 4043,
      "precise": 4044,
      "prove": 4045,
      "heard": 4046,
      "charine": 4047,
      "charmer": 4048,
      "wears": 4049,
      "notic": 4050,
      "timeless": 4051,
      "inted": 4052,
      "teeth": 4053,
      "meets": 4054,
      "phenom": 4055,
      "mental": 4056,
      "office": 4057,
      "lows": 4058,
      "joyous": 4059,
      "brand": 4060,
      "brits": 4061,
      "bracing": 4062,
      "trailer": 4063,
      "insky": 4064,
      "cock": 4065,
      "ensely": 4066,
      "overwhel": 4067,
      "ilet": 4068,
      "talk": 4069,
      "ultane": 4070,
      "afric": 4071,
      "seek": 4072,
      "compan": 4073,
      "fred": 4074,
      "seemingly": 4075,
      "underbelly": 4076,
      "nevertheless": 4077,
      "ryan": 4078,
      "caust": 4079,
      "paran": 4080,
      "biting": 4081,
      "saturday": 4082,
      "firing": 4083,
      "clean": 4084,
      "looked": 4085,
      "gyll": 4086,
      "members": 4087,
      "bub": 4088,
      "dawn": 4089,
      "hands": 4090,
      "handful": 4091,
      "handled": 4092,
      "deft": 4093,
      "redundant": 4094,
      "leaving": 4095,
      "pretends": 4096,
      "pretensions": 4097,
      "born": 4098,
      "contro": 4099,
      "context": 4100,
      "messages": 4101,
      "wanting": 4102,
      "ridden": 4103,
      "simil": 4104,
      "simultane": 4105,
      "sake": 4106,
      "nail": 4107,
      "sensical": 4108,
      "reading": 4109,
      "quirks": 4110,
      "deliber": 4111,
      "venile": 4112,
      "features": 4113,
      "sophom": 4114,
      "strain": 4115,
      "capture": 4116,
      "insights": 4117,
      "letting": 4118,
      "explore": 4119,
      "drags": 4120,
      "nonsensical": 4121,
      "fragment": 4122,
      "198": 4123,
      "contriv": 4124,
      "enchant": 4125,
      "settles": 4126,
      "symbol": 4127,
      "landsc": 4128,
      "destination": 4129,
      "decid": 4130,
      "calcul": 4131,
      "admire": 4132,
      "sister": 4133,
      "existence": 4134,
      "strikes": 4135,
      "weirdness": 4136,
      "frustration": 4137,
      "witted": 4138,
      "executed": 4139,
      "transl": 4140,
      "transform": 4141,
      "balls": 4142,
      "shaped": 4143,
      "testament": 4144,
      "observation": 4145,
      "lifts": 4146,
      "lifting": 4147,
      "added": 4148,
      "speaking": 4149,
      "desperate": 4150,
      "layered": 4151,
      "saccharine": 4152,
      "apparently": 4153,
      "intentionally": 4154,
      "delivered": 4155,
      "hungry": 4156,
      "juvenile": 4157,
      "limited": 4158,
      "astonishing": 4159,
      "astonishingly": 4160,
      "sanctim": 4161,
      "predecessors": 4162,
      "focused": 4163,
      "tortured": 4164,
      "sacrific": 4165,
      "functional": 4166,
      "candy": 4167,
      "nichol": 4168,
      "required": 4169,
      "eloquent": 4170,
      "responsible": 4171,
      "wallace": 4172,
      "thousands": 4173,
      "japanese": 4174,
      "rooting": 4175,
      "oriented": 4176,
      "holocaust": 4177,
      "intellectual": 4178,
      "buffs": 4179,
      "increasingly": 4180,
      "authority": 4181,
      "proceedings": 4182,
      "characterizations": 4183,
      "flimsy": 4184,
      "glimpse": 4185,
      "dysfunctional": 4186,
      "unfortunately": 4187,
      "divine": 4188,
      "disposable": 4189,
      "enhaal": 4190,
      "unnerving": 4191,
      "dignity": 4192,
      "phenomen": 4193,
      "african": 4194,
      "gyllenhaal": 4195,
      "simultaneously": 4196,
      "brow": 4197,
      "bank": 4198,
      "don": 4199,
      "dated": 4200,
      "fab": 4201,
      "gall": 4202,
      "giving": 4203,
      "hits": 4204,
      "hill": 4205,
      "hus": 4206,
      "kn": 4207,
      "kah": 4208,
      "kiss": 4209,
      "kicking": 4210,
      "nau": 4211,
      "ré": 4212,
      "rated": 4213,
      "race": 4214,
      "snow": 4215,
      "sque": 4216,
      "tin": 4217,
      "tab": 4218,
      "tight": 4219,
      "tones": 4220,
      "tiny": 4221,
      "uation": 4222,
      "vac": 4223,
      "wra": 4224,
      "thir": 4225,
      "infect": 4226,
      "invest": 4227,
      "erce": 4228,
      "erber": 4229,
      "erotic": 4230,
      "endi": 4231,
      "envir": 4232,
      "ennes": 4233,
      "reput": 4234,
      "relies": 4235,
      "redeem": 4236,
      "thematic": 4237,
      "inging": 4238,
      "stil": 4239,
      "staged": 4240,
      "alan": 4241,
      "ismo": 4242,
      "lying": 4243,
      "toilet": 4244,
      "icature": 4245,
      "leon": 4246,
      "chic": 4247,
      "chel": 4248,
      "chie": 4249,
      "moore": 4250,
      "accent": 4251,
      "separ": 4252,
      "search": 4253,
      "bearing": 4254,
      "unlike": 4255,
      "unfaithful": 4256,
      "impl": 4257,
      "imax": 4258,
      "demo": 4259,
      "uloid": 4260,
      "loves": 4261,
      "loved": 4262,
      "vigor": 4263,
      "ghet": 4264,
      "forth": 4265,
      "formed": 4266,
      "ligh": 4267,
      "verve": 4268,
      "verty": 4269,
      "roger": 4270,
      "comment": 4271,
      "composition": 4272,
      "noon": 4273,
      "adv": 4274,
      "admission": 4275,
      "ami": 4276,
      "shr": 4277,
      "shakes": 4278,
      "older": 4279,
      "irrit": 4280,
      "feces": 4281,
      "fewer": 4282,
      "perhap": 4283,
      "spont": 4284,
      "spears": 4285,
      "conco": 4286,
      "conven": 4287,
      "odge": 4288,
      "ummy": 4289,
      "pow": 4290,
      "poverty": 4291,
      "neat": 4292,
      "neigh": 4293,
      "soc": 4294,
      "goo": 4295,
      "aggress": 4296,
      "uss": 4297,
      "peo": 4298,
      "pled": 4299,
      "plac": 4300,
      "planet": 4301,
      "proced": 4302,
      "provid": 4303,
      "heated": 4304,
      "endor": 4305,
      "evo": 4306,
      "inder": 4307,
      "intensity": 4308,
      "opic": 4309,
      "uplifting": 4310,
      "claust": 4311,
      "boat": 4312,
      "board": 4313,
      "tep": 4314,
      "fles": 4315,
      "flam": 4316,
      "flag": 4317,
      "flacc": 4318,
      "blend": 4319,
      "prime": 4320,
      "trapp": 4321,
      "tradition": 4322,
      "ffy": 4323,
      "early": 4324,
      "greek": 4325,
      "paid": 4326,
      "despair": 4327,
      "due": 4328,
      "myself": 4329,
      "smack": 4330,
      "impul": 4331,
      "tried": 4332,
      "laughing": 4333,
      "rightly": 4334,
      "parent": 4335,
      "hollow": 4336,
      "angst": 4337,
      "angle": 4338,
      "caricature": 4339,
      "lighting": 4340,
      "scenario": 4341,
      "background": 4342,
      "cares": 4343,
      "bug": 4344,
      "buy": 4345,
      "wondr": 4346,
      "miss": 4347,
      "misery": 4348,
      "freshness": 4349,
      "morning": 4350,
      "vino": 4351,
      "handsome": 4352,
      "appears": 4353,
      "knowing": 4354,
      "fierce": 4355,
      "fiennes": 4356,
      "ysical": 4357,
      "committed": 4358,
      "lackluster": 4359,
      "winner": 4360,
      "window": 4361,
      "childhood": 4362,
      "portrays": 4363,
      "sadly": 4364,
      "sorvino": 4365,
      "clichéd": 4366,
      "base": 4367,
      "bloody": 4368,
      "adventures": 4369,
      "impression": 4370,
      "gorgeously": 4371,
      "reflect": 4372,
      "lurid": 4373,
      "195": 4374,
      "invention": 4375,
      "aims": 4376,
      "murky": 4377,
      "violent": 4378,
      "confid": 4379,
      "inspirational": 4380,
      "drop": 4381,
      "virtu": 4382,
      "artists": 4383,
      "banal": 4384,
      "escapism": 4385,
      "understands": 4386,
      "slapdash": 4387,
      "endeavor": 4388,
      "splendor": 4389,
      "catch": 4390,
      "psychology": 4391,
      "sisters": 4392,
      "chills": 4393,
      "existed": 4394,
      "eventful": 4395,
      "eventually": 4396,
      "tarant": 4397,
      "tells": 4398,
      "horrifying": 4399,
      "spoof": 4400,
      "fighting": 4401,
      "developed": 4402,
      "gangs": 4403,
      "breaks": 4404,
      "fluid": 4405,
      "episod": 4406,
      "aspires": 4407,
      "desperation": 4408,
      "courageous": 4409,
      "known": 4410,
      "respectable": 4411,
      "postcard": 4412,
      "rapid": 4413,
      "rises": 4414,
      "rendered": 4415,
      "variety": 4416,
      "resonance": 4417,
      "conceived": 4418,
      "absurdity": 4419,
      "hunter": 4420,
      "britney": 4421,
      "fills": 4422,
      "clumsy": 4423,
      "burns": 4424,
      "thrown": 4425,
      "portrayal": 4426,
      "transcends": 4427,
      "blown": 4428,
      "ponderous": 4429,
      "traditional": 4430,
      "significant": 4431,
      "appreciate": 4432,
      "consistent": 4433,
      "sensual": 4434,
      "celluloid": 4435,
      "drawing": 4436,
      "distinguished": 4437,
      "integrity": 4438,
      "drugs": 4439,
      "supporting": 4440,
      "measure": 4441,
      "dramatically": 4442,
      "chaotic": 4443,
      "recycled": 4444,
      "magical": 4445,
      "cynical": 4446,
      "frozen": 4447,
      "incessant": 4448,
      "describe": 4449,
      "depiction": 4450,
      "contradict": 4451,
      "enthralling": 4452,
      "prehensible": 4453,
      "intolerable": 4454,
      "mythic": 4455,
      "dreadful": 4456,
      "hidden": 4457,
      "soderber": 4458,
      "eastwood": 4459,
      "thumbs": 4460,
      "rophob": 4461,
      "regret": 4462,
      "stilted": 4463,
      "ghetto": 4464,
      "commentary": 4465,
      "perhaps": 4466,
      "spontane": 4467,
      "convenient": 4468,
      "neighbor": 4469,
      "claustrophob": 4470,
      "flaccid": 4471,
      "trappings": 4472,
      "soderbergh": 4473,
      "00": 4474,
      "13": 4475,
      "awe": 4476,
      "aque": 4477,
      "ahead": 4478,
      "bits": 4479,
      "bill": 4480,
      "bite": 4481,
      "bbled": 4482,
      "dome": 4483,
      "dong": 4484,
      "dling": 4485,
      "daw": 4486,
      "drun": 4487,
      "fli": 4488,
      "gel": 4489,
      "gile": 4490,
      "gain": 4491,
      "hon": 4492,
      "hong": 4493,
      "hitch": 4494,
      "kong": 4495,
      "kung": 4496,
      "lor": 4497,
      "lantic": 4498,
      "lunch": 4499,
      "mitt": 4500,
      "ns": 4501,
      "nia": 4502,
      "narc": 4503,
      "ogy": 4504,
      "rum": 4505,
      "ranks": 4506,
      "sill": 4507,
      "tat": 4508,
      "tay": 4509,
      "tart": 4510,
      "tte": 4511,
      "twin": 4512,
      "tempt": 4513,
      "tier": 4514,
      "uable": 4515,
      "vishing": 4516,
      "vail": 4517,
      "yal": 4518,
      "envelop": 4519,
      "rein": 4520,
      "reple": 4521,
      "returns": 4522,
      "atroc": 4523,
      "atlantic": 4524,
      "stro": 4525,
      "state": 4526,
      "arian": 4527,
      "lym": 4528,
      "lem": 4529,
      "league": 4530,
      "asive": 4531,
      "iling": 4532,
      "moody": 4533,
      "eliza": 4534,
      "acclaim": 4535,
      "uninteresting": 4536,
      "uncomfortably": 4537,
      "depart": 4538,
      "lope": 4539,
      "lola": 4540,
      "aby": 4541,
      "ford": 4542,
      "lips": 4543,
      "raised": 4544,
      "ravishing": 4545,
      "rog": 4546,
      "roo": 4547,
      "util": 4548,
      "subl": 4549,
      "coma": 4550,
      "term": 4551,
      "nowhere": 4552,
      "nostal": 4553,
      "rium": 4554,
      "filming": 4555,
      "within": 4556,
      "withstanding": 4557,
      "amused": 4558,
      "amuse": 4559,
      "diversion": 4560,
      "irish": 4561,
      "irrelevant": 4562,
      "fee": 4563,
      "percept": 4564,
      "spite": 4565,
      "spinning": 4566,
      "moviemaking": 4567,
      "concess": 4568,
      "condesc": 4569,
      "artful": 4570,
      "articul": 4571,
      "gos": 4572,
      "mann": 4573,
      "ury": 4574,
      "ateau": 4575,
      "useless": 4576,
      "pet": 4577,
      "pless": 4578,
      "plus": 4579,
      "charged": 4580,
      "web": 4581,
      "weeks": 4582,
      "notwithstanding": 4583,
      "enduring": 4584,
      "endlessly": 4585,
      "inting": 4586,
      "fundam": 4587,
      "opaque": 4588,
      "igno": 4589,
      "ifying": 4590,
      "tears": 4591,
      "meat": 4592,
      "mechan": 4593,
      "phones": 4594,
      "brought": 4595,
      "pract": 4596,
      "string": 4597,
      "insign": 4598,
      "cover": 4599,
      "assa": 4600,
      "assass": 4601,
      "grab": 4602,
      "gritty": 4603,
      "justify": 4604,
      "canvas": 4605,
      "type": 4606,
      "page": 4607,
      "intermin": 4608,
      "desired": 4609,
      "subvers": 4610,
      "serve": 4611,
      "orton": 4612,
      "talky": 4613,
      "screenwriter": 4614,
      "screenwriting": 4615,
      "duct": 4616,
      "warning": 4617,
      "compul": 4618,
      "yearning": 4619,
      "centric": 4620,
      "century": 4621,
      "france": 4622,
      "oblig": 4623,
      "laughable": 4624,
      "plotted": 4625,
      "cheek": 4626,
      "holm": 4627,
      "carries": 4628,
      "enjoyment": 4629,
      "scenery": 4630,
      "mono": 4631,
      "slugg": 4632,
      "apping": 4633,
      "scripts": 4634,
      "dahmer": 4635,
      "misogy": 4636,
      "craft": 4637,
      "dred": 4638,
      "vintage": 4639,
      "defies": 4640,
      "generous": 4641,
      "generated": 4642,
      "sincer": 4643,
      "appearing": 4644,
      "stew": 4645,
      "corpor": 4646,
      "caper": 4647,
      "pretension": 4648,
      "distur": 4649,
      "producer": 4650,
      "satisfies": 4651,
      "german": 4652,
      "mira": 4653,
      "saving": 4654,
      "oked": 4655,
      "walked": 4656,
      "wallop": 4657,
      "midnight": 4658,
      "hypo": 4659,
      "hype": 4660,
      "hybrid": 4661,
      "delivery": 4662,
      "videos": 4663,
      "richly": 4664,
      "valuable": 4665,
      "honesty": 4666,
      "maintains": 4667,
      "foot": 4668,
      "started": 4669,
      "leaden": 4670,
      "harm": 4671,
      "exploitative": 4672,
      "wai": 4673,
      "finish": 4674,
      "fragile": 4675,
      "100": 4676,
      "contribut": 4677,
      "crucial": 4678,
      "fairy": 4679,
      "payoff": 4680,
      "souls": 4681,
      "soulless": 4682,
      "sustains": 4683,
      "imaginable": 4684,
      "historically": 4685,
      "credibility": 4686,
      "substantial": 4687,
      "innocent": 4688,
      "disappointed": 4689,
      "rub": 4690,
      "possibilities": 4691,
      "straightforward": 4692,
      "amazingly": 4693,
      "tragedies": 4694,
      "hugely": 4695,
      "pulp": 4696,
      "shapeless": 4697,
      "actresses": 4698,
      "savvy": 4699,
      "machismo": 4700,
      "medium": 4701,
      "immensely": 4702,
      "openness": 4703,
      "layers": 4704,
      "delivering": 4705,
      "jackson": 4706,
      "vulner": 4707,
      "remembering": 4708,
      "elegant": 4709,
      "whimsy": 4710,
      "opportun": 4711,
      "emerge": 4712,
      "dishone": 4713,
      "charismatic": 4714,
      "gloriously": 4715,
      "jewish": 4716,
      "procession": 4717,
      "struggle": 4718,
      "embraces": 4719,
      "gratuit": 4720,
      "breathtakingly": 4721,
      "europe": 4722,
      "accurate": 4723,
      "immediate": 4724,
      "sparkling": 4725,
      "jerking": 4726,
      "torture": 4727,
      "draws": 4728,
      "builds": 4729,
      "succumbs": 4730,
      "expense": 4731,
      "adequate": 4732,
      "adequately": 4733,
      "language": 4734,
      "blockbuster": 4735,
      "blockbusters": 4736,
      "dares": 4737,
      "jumbo": 4738,
      "teacher": 4739,
      "alienation": 4740,
      "piano": 4741,
      "random": 4742,
      "aplomb": 4743,
      "giddy": 4744,
      "dependent": 4745,
      "improvisation": 4746,
      "evelyn": 4747,
      "shrewd": 4748,
      "sobering": 4749,
      "dubbed": 4750,
      "obsession": 4751,
      "sarandon": 4752,
      "tongue": 4753,
      "deeper": 4754,
      "irresistible": 4755,
      "swallow": 4756,
      "thearted": 4757,
      "threat": 4758,
      "clinic": 4759,
      "insanely": 4760,
      "broomfield": 4761,
      "atmospheric": 4762,
      "dullest": 4763,
      "pokemon": 4764,
      "landscape": 4765,
      "sisterhood": 4766,
      "sacrificing": 4767,
      "kahlo": 4768,
      "environ": 4769,
      "implaus": 4770,
      "lighthearted": 4771,
      "domestic": 4772,
      "silliness": 4773,
      "enveloping": 4774,
      "replete": 4775,
      "elizabe": 4776,
      "lopez": 4777,
      "concession": 4778,
      "fundament": 4779,
      "insignific": 4780,
      "subversive": 4781,
      "sluggish": 4782,
      "sincerity": 4783,
      "gratuitous": 4784,
      "70s": 4785,
      "88": 4786,
      "aint": 4787,
      "cure": 4788,
      "cup": 4789,
      "cow": 4790,
      "dad": 4791,
      "dical": 4792,
      "eg": 4793,
      "fice": 4794,
      "farts": 4795,
      "gimm": 4796,
      "ium": 4797,
      "iant": 4798,
      "iation": 4799,
      "ians": 4800,
      "ique": 4801,
      "jaw": 4802,
      "james": 4803,
      "ki": 4804,
      "kers": 4805,
      "kline": 4806,
      "lind": 4807,
      "law": 4808,
      "lord": 4809,
      "lump": 4810,
      "ningly": 4811,
      "oh": 4812,
      "rust": 4813,
      "rans": 4814,
      "rings": 4815,
      "ronic": 4816,
      "swi": 4817,
      "sway": 4818,
      "slea": 4819,
      "sleep": 4820,
      "snail": 4821,
      "tis": 4822,
      "tast": 4823,
      "uh": 4824,
      "ule": 4825,
      "uge": 4826,
      "uber": 4827,
      "vil": 4828,
      "vors": 4829,
      "wk": 4830,
      "inject": 4831,
      "inane": 4832,
      "incoher": 4833,
      "incoherent": 4834,
      "incompetent": 4835,
      "enig": 4836,
      "eningly": 4837,
      "encoura": 4838,
      "ret": 4839,
      "rehas": 4840,
      "reci": 4841,
      "repul": 4842,
      "theon": 4843,
      "ongest": 4844,
      "sters": 4845,
      "stiff": 4846,
      "oric": 4847,
      "orate": 4848,
      "altogether": 4849,
      "album": 4850,
      "esc": 4851,
      "esome": 4852,
      "argu": 4853,
      "icip": 4854,
      "leaky": 4855,
      "aside": 4856,
      "assem": 4857,
      "omer": 4858,
      "ilib": 4859,
      "chas": 4860,
      "chore": 4861,
      "chris": 4862,
      "chops": 4863,
      "moved": 4864,
      "eled": 4865,
      "acade": 4866,
      "account": 4867,
      "sey": 4868,
      "sear": 4869,
      "becoming": 4870,
      "unexpect": 4871,
      "unbelievable": 4872,
      "unusually": 4873,
      "unrelent": 4874,
      "unsympathetic": 4875,
      "deb": 4876,
      "destruct": 4877,
      "delect": 4878,
      "ulate": 4879,
      "lovers": 4880,
      "loween": 4881,
      "abit": 4882,
      "abby": 4883,
      "former": 4884,
      "rah": 4885,
      "raises": 4886,
      "radical": 4887,
      "verbal": 4888,
      "suited": 4889,
      "ters": 4890,
      "nold": 4891,
      "rives": 4892,
      "ader": 4893,
      "adds": 4894,
      "amalan": 4895,
      "shelf": 4896,
      "shines": 4897,
      "outstanding": 4898,
      "spin": 4899,
      "span": 4900,
      "spiff": 4901,
      "sprightly": 4902,
      "exh": 4903,
      "exit": 4904,
      "excru": 4905,
      "exotic": 4906,
      "exagger": 4907,
      "exuber": 4908,
      "conserv": 4909,
      "contest": 4910,
      "concentr": 4911,
      "scattered": 4912,
      "pool": 4913,
      "poem": 4914,
      "net": 4915,
      "near": 4916,
      "soci": 4917,
      "dot": 4918,
      "door": 4919,
      "dose": 4920,
      "emplo": 4921,
      "aging": 4922,
      "illustr": 4923,
      "manners": 4924,
      "ided": 4925,
      "pep": 4926,
      "auto": 4927,
      "ellen": 4928,
      "wear": 4929,
      "somebody": 4930,
      "timing": 4931,
      "tract": 4932,
      "box": 4933,
      "ishment": 4934,
      "lesson": 4935,
      "creature": 4936,
      "blind": 4937,
      "blair": 4938,
      "tooth": 4939,
      "mented": 4940,
      "brush": 4941,
      "prin": 4942,
      "prison": 4943,
      "strang": 4944,
      "strongest": 4945,
      "etc": 4946,
      "ensed": 4947,
      "overrun": 4948,
      "overbearing": 4949,
      "display": 4950,
      "interviews": 4951,
      "intermitt": 4952,
      "desire": 4953,
      "marine": 4954,
      "realize": 4955,
      "ashedly": 4956,
      "lifestyle": 4957,
      "heartbreaking": 4958,
      "freaks": 4959,
      "awfully": 4960,
      "trifle": 4961,
      "underst": 4962,
      "particip": 4963,
      "longing": 4964,
      "english": 4965,
      "gravity": 4966,
      "turing": 4967,
      "ocity": 4968,
      "parable": 4969,
      "parody": 4970,
      "stylistic": 4971,
      "belt": 4972,
      "capturing": 4973,
      "rowing": 4974,
      "cia": 4975,
      "eccentric": 4976,
      "wooden": 4977,
      "emotion": 4978,
      "month": 4979,
      "treas": 4980,
      "thrillers": 4981,
      "thinks": 4982,
      "powerfully": 4983,
      "choice": 4984,
      "showing": 4985,
      "highs": 4986,
      "nerve": 4987,
      "farce": 4988,
      "cram": 4989,
      "vincent": 4990,
      "broken": 4991,
      "cylind": 4992,
      "keeping": 4993,
      "generosity": 4994,
      "halloween": 4995,
      "sweetness": 4996,
      "resour": 4997,
      "wondering": 4998,
      "attitude": 4999,
      "singing": 5000,
      "elessness": 5001,
      "borders": 5002,
      "animat": 5003,
      "ibilities": 5004,
      "distaste": 5005,
      "experienced": 5006,
      "charms": 5007,
      "simone": 5008,
      "clock": 5009,
      "wallet": 5010,
      "casual": 5011,
      "elev": 5012,
      "elevate": 5013,
      "ification": 5014,
      "fallen": 5015,
      "sensitivity": 5016,
      "terrifying": 5017,
      "convince": 5018,
      "popular": 5019,
      "heads": 5020,
      "helps": 5021,
      "schiz": 5022,
      "brave": 5023,
      "equilib": 5024,
      "signpost": 5025,
      "topic": 5026,
      "leading": 5027,
      "harry": 5028,
      "harrowing": 5029,
      "refuge": 5030,
      "griev": 5031,
      "heroes": 5032,
      "heroine": 5033,
      "burst": 5034,
      "101": 5035,
      "confused": 5036,
      "hilariously": 5037,
      "destro": 5038,
      "benef": 5039,
      "chances": 5040,
      "deserved": 5041,
      "catches": 5042,
      "delicately": 5043,
      "psychologically": 5044,
      "grows": 5045,
      "snip": 5046,
      "chiller": 5047,
      "treats": 5048,
      "rude": 5049,
      "weirdly": 5050,
      "frustratingly": 5051,
      "dancing": 5052,
      "tasteful": 5053,
      "graceful": 5054,
      "earnestness": 5055,
      "journal": 5056,
      "legal": 5057,
      "legend": 5058,
      "laborious": 5059,
      "square": 5060,
      "includes": 5061,
      "indivi": 5062,
      "speed": 5063,
      "critic": 5064,
      "intimacy": 5065,
      "costly": 5066,
      "involved": 5067,
      "immers": 5068,
      "flowing": 5069,
      "numbing": 5070,
      "numbers": 5071,
      "numbingly": 5072,
      "renders": 5073,
      "trashy": 5074,
      "wilde": 5075,
      "enthusiastic": 5076,
      "insultingly": 5077,
      "pantheon": 5078,
      "rollicking": 5079,
      "vague": 5080,
      "loaded": 5081,
      "painted": 5082,
      "achieving": 5083,
      "rushed": 5084,
      "bittersweet": 5085,
      "technical": 5086,
      "expert": 5087,
      "alternately": 5088,
      "shamelessly": 5089,
      "incredible": 5090,
      "sketch": 5091,
      "immediacy": 5092,
      "diverting": 5093,
      "shocks": 5094,
      "consistently": 5095,
      "brutally": 5096,
      "relentlessly": 5097,
      "sneaks": 5098,
      "bogdan": 5099,
      "deceptions": 5100,
      "profoundly": 5101,
      "drowned": 5102,
      "sacrifice": 5103,
      "suggests": 5104,
      "torn": 5105,
      "record": 5106,
      "liberating": 5107,
      "measured": 5108,
      "status": 5109,
      "suspecting": 5110,
      "objective": 5111,
      "***": 5112,
      "facet": 5113,
      "hideously": 5114,
      "jazzy": 5115,
      "ingenious": 5116,
      "shifting": 5117,
      "pathology": 5118,
      "dynamic": 5119,
      "improvement": 5120,
      "bombastic": 5121,
      "lonel": 5122,
      "nifty": 5123,
      "inherently": 5124,
      "communal": 5125,
      "smooth": 5126,
      "bilked": 5127,
      "pompeo": 5128,
      "relief": 5129,
      "conspiracy": 5130,
      "disgusting": 5131,
      "screaming": 5132,
      "organ": 5133,
      "unabashedly": 5134,
      "unfulfilling": 5135,
      "shyamalan": 5136,
      "criminal": 5137,
      "bourne": 5138,
      "inhabit": 5139,
      "incomprehensible": 5140,
      "chuckle": 5141,
      "adolescent": 5142,
      "ambiguous": 5143,
      "establish": 5144,
      "companion": 5145,
      "sophomoric": 5146,
      "translation": 5147,
      "phenomenal": 5148,
      "wrapped": 5149,
      "chicago": 5150,
      "irritating": 5151,
      "confidence": 5152,
      "tarantino": 5153,
      "neighborhood": 5154,
      "nostalgic": 5155,
      "articulate": 5156,
      "insignificance": 5157,
      "tastelessness": 5158,
      "incoherence": 5159,
      "recipe": 5160,
      "unexpectedly": 5161,
      "delectable": 5162,
      "excruci": 5163,
      "conservative": 5164,
      "intermittently": 5165,
      "cylinders": 5166,
      "equilibrium": 5167,
      "refugees": 5168,
      "11": 5169,
      "15": 5170,
      "51": 5171,
      "86": 5172,
      "ba": 5173,
      "bby": 5174,
      "bop": 5175,
      "bride": 5176,
      "cate": 5177,
      "cies": 5178,
      "cage": 5179,
      "caut": 5180,
      "dum": 5181,
      "dinner": 5182,
      "ee": 5183,
      "eze": 5184,
      "fable": 5185,
      "fate": 5186,
      "fell": 5187,
      "gul": 5188,
      "gig": 5189,
      "hay": 5190,
      "harr": 5191,
      "ior": 5192,
      "iful": 5193,
      "iarly": 5194,
      "jon": 5195,
      "jac": 5196,
      "jam": 5197,
      "jug": 5198,
      "juni": 5199,
      "jord": 5200,
      "jinsky": 5201,
      "kum": 5202,
      "kicks": 5203,
      "kwan": 5204,
      "lom": 5205,
      "lam": 5206,
      "lap": 5207,
      "lur": 5208,
      "lull": 5209,
      "lends": 5210,
      "laud": 5211,
      "mour": 5212,
      "mull": 5213,
      "nick": 5214,
      "nacle": 5215,
      "ping": 5216,
      "pion": 5217,
      "pad": 5218,
      "ral": 5219,
      "rut": 5220,
      "rough": 5221,
      "rating": 5222,
      "rising": 5223,
      "sane": 5224,
      "sung": 5225,
      "tem": 5226,
      "ties": 5227,
      "udo": 5228,
      "vu": 5229,
      "vit": 5230,
      "vall": 5231,
      "vict": 5232,
      "vain": 5233,
      "went": 5234,
      "wone": 5235,
      "wrest": 5236,
      "wreck": 5237,
      "yi": 5238,
      "yu": 5239,
      "zip": 5240,
      "ñuel": 5241,
      "thick": 5242,
      "thday": 5243,
      "inated": 5244,
      "inhal": 5245,
      "inescap": 5246,
      "indeed": 5247,
      "inadver": 5248,
      "anig": 5249,
      "anci": 5250,
      "angry": 5251,
      "erous": 5252,
      "enanig": 5253,
      "rep": 5254,
      "rely": 5255,
      "reel": 5256,
      "rever": 5257,
      "redi": 5258,
      "replaced": 5259,
      "onistic": 5260,
      "onna": 5261,
      "ingredi": 5262,
      "stas": 5263,
      "stone": 5264,
      "stall": 5265,
      "station": 5266,
      "stopp": 5267,
      "order": 5268,
      "alia": 5269,
      "esse": 5270,
      "ara": 5271,
      "arrive": 5272,
      "arante": 5273,
      "total": 5274,
      "edgy": 5275,
      "ici": 5276,
      "lear": 5277,
      "leap": 5278,
      "leby": 5279,
      "lection": 5280,
      "lewis": 5281,
      "asks": 5282,
      "asph": 5283,
      "omical": 5284,
      "omacy": 5285,
      "omnia": 5286,
      "iled": 5287,
      "chou": 5288,
      "champ": 5289,
      "china": 5290,
      "model": 5291,
      "acles": 5292,
      "aceless": 5293,
      "sect": 5294,
      "seams": 5295,
      "beach": 5296,
      "behold": 5297,
      "undead": 5298,
      "unsentimental": 5299,
      "uneventful": 5300,
      "unimaginable": 5301,
      "unsuspecting": 5302,
      "image": 5303,
      "immature": 5304,
      "degre": 5305,
      "dealing": 5306,
      "deprec": 5307,
      "demented": 5308,
      "ulous": 5309,
      "ularly": 5310,
      "lov": 5311,
      "local": 5312,
      "ghai": 5313,
      "rop": 5314,
      "rober": 5315,
      "rodri": 5316,
      "rohmer": 5317,
      "susan": 5318,
      "suasive": 5319,
      "ceful": 5320,
      "nobody": 5321,
      "riage": 5322,
      "rival": 5323,
      "ctions": 5324,
      "amor": 5325,
      "dipl": 5326,
      "shi": 5327,
      "shor": 5328,
      "shining": 5329,
      "shenanig": 5330,
      "olic": 5331,
      "irk": 5332,
      "iron": 5333,
      "femin": 5334,
      "outing": 5335,
      "youth": 5336,
      "pers": 5337,
      "perverse": 5338,
      "persuasive": 5339,
      "confront": 5340,
      "conspic": 5341,
      "conduct": 5342,
      "apo": 5343,
      "sca": 5344,
      "scor": 5345,
      "scient": 5346,
      "neo": 5347,
      "dope": 5348,
      "actory": 5349,
      "anton": 5350,
      "antwone": 5351,
      "alluring": 5352,
      "goose": 5353,
      "empower": 5354,
      "roman": 5355,
      "illumin": 5356,
      "managed": 5357,
      "manhood": 5358,
      "asting": 5359,
      "urge": 5360,
      "prejud": 5361,
      "preposter": 5362,
      "tax": 5363,
      "proof": 5364,
      "progra": 5365,
      "west": 5366,
      "wearing": 5367,
      "notable": 5368,
      "trust": 5369,
      "boasts": 5370,
      "tsai": 5371,
      "ishes": 5372,
      "ption": 5373,
      "lessons": 5374,
      "guarante": 5375,
      "ours": 5376,
      "blu": 5377,
      "blat": 5378,
      "blank": 5379,
      "took": 5380,
      "phon": 5381,
      "anybody": 5382,
      "brim": 5383,
      "bruce": 5384,
      "prise": 5385,
      "princ": 5386,
      "travail": 5387,
      "inson": 5388,
      "insip": 5389,
      "insomnia": 5390,
      "grim": 5391,
      "gruous": 5392,
      "graceless": 5393,
      "discer": 5394,
      "sermon": 5395,
      "ization": 5396,
      "marriage": 5397,
      "players": 5398,
      "nesses": 5399,
      "screenwriters": 5400,
      "duke": 5401,
      "duvall": 5402,
      "warzen": 5403,
      "efs": 5404,
      "udge": 5405,
      "smash": 5406,
      "compar": 5407,
      "freak": 5408,
      "impenetr": 5409,
      "joyless": 5410,
      "obsc": 5411,
      "greatness": 5412,
      "caught": 5413,
      "venture": 5414,
      "chew": 5415,
      "cheeky": 5416,
      "pleasantly": 5417,
      "imagery": 5418,
      "downbeat": 5419,
      "downtown": 5420,
      "pointed": 5421,
      "daytime": 5422,
      "belong": 5423,
      "belie": 5424,
      "caring": 5425,
      "carol": 5426,
      "carvey": 5427,
      "backs": 5428,
      "cumst": 5429,
      "monot": 5430,
      "buried": 5431,
      "built": 5432,
      "buñuel": 5433,
      "kinda": 5434,
      "choose": 5435,
      "highlight": 5436,
      "nerds": 5437,
      "misfire": 5438,
      "moronic": 5439,
      "handling": 5440,
      "brosn": 5441,
      "gib": 5442,
      "studi": 5443,
      "ledge": 5444,
      "corrupt": 5445,
      "knowledge": 5446,
      "cultiv": 5447,
      "passes": 5448,
      "excited": 5449,
      "afternoon": 5450,
      "border": 5451,
      "borrow": 5452,
      "skies": 5453,
      "graphical": 5454,
      "easier": 5455,
      "glass": 5456,
      "winners": 5457,
      "distant": 5458,
      "distanced": 5459,
      "produce": 5460,
      "barney": 5461,
      "childlike": 5462,
      "putting": 5463,
      "masterfully": 5464,
      "walt": 5465,
      "ondz": 5466,
      "emptiness": 5467,
      "hyster": 5468,
      "predictably": 5469,
      "strongly": 5470,
      "narratively": 5471,
      "richard": 5472,
      "friday": 5473,
      "sordid": 5474,
      "schwarzen": 5475,
      "impressions": 5476,
      "impressively": 5477,
      "profile": 5478,
      "waves": 5479,
      "pungent": 5480,
      "inventiveness": 5481,
      "fellow": 5482,
      "utely": 5483,
      "restroom": 5484,
      "affected": 5485,
      "politically": 5486,
      "solondz": 5487,
      "droll": 5488,
      "hoping": 5489,
      "patient": 5490,
      "inspire": 5491,
      "stooping": 5492,
      "suffer": 5493,
      "personalities": 5494,
      "puzz": 5495,
      "artistry": 5496,
      "touched": 5497,
      "stepped": 5498,
      "conceptual": 5499,
      "devices": 5500,
      "techni": 5501,
      "lively": 5502,
      "sandra": 5503,
      "fourth": 5504,
      "names": 5505,
      "named": 5506,
      "disappointments": 5507,
      "nijinsky": 5508,
      "smoking": 5509,
      "smoother": 5510,
      "execut": 5511,
      "dogs": 5512,
      "horribly": 5513,
      "swinging": 5514,
      "stunningly": 5515,
      "devote": 5516,
      "spook": 5517,
      "copy": 5518,
      "flashes": 5519,
      "labored": 5520,
      "purely": 5521,
      "squanders": 5522,
      "expression": 5523,
      "expressive": 5524,
      "seats": 5525,
      "skillfully": 5526,
      "wastes": 5527,
      "groan": 5528,
      "rental": 5529,
      "assuming": 5530,
      "lifeless": 5531,
      "conventions": 5532,
      "realistically": 5533,
      "follows": 5534,
      "hammy": 5535,
      "savor": 5536,
      "recovery": 5537,
      "source": 5538,
      "instinct": 5539,
      "severe": 5540,
      "superficiality": 5541,
      "complications": 5542,
      "intentions": 5543,
      "concerned": 5544,
      "martial": 5545,
      "wilder": 5546,
      "million": 5547,
      "palma": 5548,
      "sickening": 5549,
      "forceful": 5550,
      "forcement": 5551,
      "grounded": 5552,
      "mistake": 5553,
      "loads": 5554,
      "breakthrough": 5555,
      "circumst": 5556,
      "peculiarly": 5557,
      "fisher": 5558,
      "glorious": 5559,
      "textbook": 5560,
      "madonna": 5561,
      "struggling": 5562,
      "awkwardly": 5563,
      "collision": 5564,
      "inviting": 5565,
      "changes": 5566,
      "appreciated": 5567,
      "protagonists": 5568,
      "reduced": 5569,
      "accurately": 5570,
      "featuring": 5571,
      "dressed": 5572,
      "sensuality": 5573,
      "focus": 5574,
      "pinnacle": 5575,
      "deceptively": 5576,
      "regardless": 5577,
      "recording": 5578,
      "liberation": 5579,
      "primarily": 5580,
      "barrels": 5581,
      "curiously": 5582,
      "spotlight": 5583,
      "henry": 5584,
      "pianist": 5585,
      "recklessness": 5586,
      "robinson": 5587,
      "conjured": 5588,
      "aplenty": 5589,
      "shadows": 5590,
      "throws": 5591,
      "pathos": 5592,
      "professionals": 5593,
      "birthday": 5594,
      "miracle": 5595,
      "discipline": 5596,
      "disciplined": 5597,
      "pseudo": 5598,
      "incongruous": 5599,
      "assurance": 5600,
      "1999": 5601,
      "adrenaline": 5602,
      "fifteen": 5603,
      "glossy": 5604,
      "jaglom": 5605,
      "snore": 5606,
      "constant": 5607,
      "qualities": 5608,
      "marginal": 5609,
      "resolutely": 5610,
      "fixating": 5611,
      "released": 5612,
      "technology": 5613,
      "experimentation": 5614,
      "baffled": 5615,
      "evident": 5616,
      "idiots": 5617,
      "julie": 5618,
      "lunacy": 5619,
      "williams": 5620,
      "stinker": 5621,
      "woefully": 5622,
      "crudup": 5623,
      "warrior": 5624,
      "satirical": 5625,
      "dustin": 5626,
      "hedonistic": 5627,
      "later": 5628,
      "skewed": 5629,
      "improbable": 5630,
      "locations": 5631,
      "shanghai": 5632,
      "scratch": 5633,
      "astounding": 5634,
      "precisely": 5635,
      "overwhelming": 5636,
      "paranoid": 5637,
      "dawns": 5638,
      "fabric": 5639,
      "husband": 5640,
      "knack": 5641,
      "infectious": 5642,
      "reputation": 5643,
      "providing": 5644,
      "wondrous": 5645,
      "contradictory": 5646,
      "narciss": 5647,
      "taylor": 5648,
      "sublime": 5649,
      "condescending": 5650,
      "ignored": 5651,
      "interminable": 5652,
      "obligatory": 5653,
      "misogyny": 5654,
      "harmless": 5655,
      "vulnerable": 5656,
      "implausible": 5657,
      "egger": 5658,
      "exaggerated": 5659,
      "principl": 5660,
      "resourceful": 5661,
      "individual": 5662,
      "bogdanovich": 5663,
      "loneliness": 5664,
      "jordan": 5665,
      "laudable": 5666,
      "ralph": 5667,
      "vitality": 5668,
      "inescapable": 5669,
      "inadvertent": 5670,
      "degree": 5671,
      "deprecating": 5672,
      "locales": 5673,
      "diplomacy": 5674,
      "shenanigans": 5675,
      "empowerment": 5676,
      "preposterous": 5677,
      "program": 5678,
      "princip": 5679,
      "insipid": 5680,
      "impenetrable": 5681,
      "brosnan": 5682,
      "schwarzenegger": 5683,
      "18": 5684,
      "22": 5685,
      "4ever": 5686,
      "athers": 5687,
      "cite": 5688,
      "civ": 5689,
      "cgi": 5690,
      "callow": 5691,
      "dic": 5692,
      "dut": 5693,
      "ezy": 5694,
      "fum": 5695,
      "fitting": 5696,
      "gg": 5697,
      "gal": 5698,
      "glo": 5699,
      "gli": 5700,
      "gam": 5701,
      "glow": 5702,
      "glee": 5703,
      "hang": 5704,
      "hitting": 5705,
      "iat": 5706,
      "ibit": 5707,
      "jan": 5708,
      "jen": 5709,
      "kir": 5710,
      "kick": 5711,
      "kier": 5712,
      "kitch": 5713,
      "ls": 5714,
      "lly": 5715,
      "lers": 5716,
      "mum": 5717,
      "mich": 5718,
      "mong": 5719,
      "nut": 5720,
      "norton": 5721,
      "oce": 5722,
      "ocl": 5723,
      "pen": 5724,
      "pas": 5725,
      "pess": 5726,
      "pill": 5727,
      "rise": 5728,
      "range": 5729,
      "russ": 5730,
      "sso": 5731,
      "sag": 5732,
      "sme": 5733,
      "sively": 5734,
      "té": 5735,
      "tel": 5736,
      "tensions": 5737,
      "tattered": 5738,
      "ub": 5739,
      "ued": 5740,
      "ufact": 5741,
      "umach": 5742,
      "wang": 5743,
      "wanders": 5744,
      "xistent": 5745,
      "yac": 5746,
      "zes": 5747,
      "zens": 5748,
      "thump": 5749,
      "iner": 5750,
      "inim": 5751,
      "inform": 5752,
      "inoffensive": 5753,
      "informat": 5754,
      "indifference": 5755,
      "inappropriate": 5756,
      "anal": 5757,
      "anism": 5758,
      "anthro": 5759,
      "reaction": 5760,
      "redem": 5761,
      "relig": 5762,
      "retro": 5763,
      "reassur": 5764,
      "recite": 5765,
      "thed": 5766,
      "atty": 5767,
      "stag": 5768,
      "stur": 5769,
      "stif": 5770,
      "stult": 5771,
      "sticks": 5772,
      "stagger": 5773,
      "orche": 5774,
      "esque": 5775,
      "isive": 5776,
      "arat": 5777,
      "argent": 5778,
      "arrog": 5779,
      "arnold": 5780,
      "ararat": 5781,
      "toler": 5782,
      "edges": 5783,
      "icy": 5784,
      "iced": 5785,
      "ication": 5786,
      "icule": 5787,
      "iles": 5788,
      "ilty": 5789,
      "chab": 5790,
      "chur": 5791,
      "chick": 5792,
      "molly": 5793,
      "entry": 5794,
      "sept": 5795,
      "section": 5796,
      "beast": 5797,
      "befud": 5798,
      "unlikely": 5799,
      "vein": 5800,
      "impe": 5801,
      "impersonal": 5802,
      "impossibly": 5803,
      "devol": 5804,
      "deals": 5805,
      "los": 5806,
      "lored": 5807,
      "lobby": 5808,
      "vig": 5809,
      "abre": 5810,
      "rape": 5811,
      "versy": 5812,
      "roles": 5813,
      "robust": 5814,
      "rocks": 5815,
      "wher": 5816,
      "suits": 5817,
      "supre": 5818,
      "ripe": 5819,
      "rida": 5820,
      "adic": 5821,
      "ctive": 5822,
      "shag": 5823,
      "shred": 5824,
      "shake": 5825,
      "shtick": 5826,
      "shabby": 5827,
      "kets": 5828,
      "gear": 5829,
      "iran": 5830,
      "ironic": 5831,
      "pertin": 5832,
      "spader": 5833,
      "expo": 5834,
      "moviegoing": 5835,
      "cond": 5836,
      "congrat": 5837,
      "umble": 5838,
      "fulfill": 5839,
      "neider": 5840,
      "artsy": 5841,
      "dots": 5842,
      "doses": 5843,
      "dozens": 5844,
      "antage": 5845,
      "goals": 5846,
      "worn": 5847,
      "worry": 5848,
      "qui": 5849,
      "agree": 5850,
      "manufact": 5851,
      "urity": 5852,
      "ides": 5853,
      "prep": 5854,
      "prefer": 5855,
      "usions": 5856,
      "tached": 5857,
      "autop": 5858,
      "hear": 5859,
      "charge": 5860,
      "ella": 5861,
      "elled": 5862,
      "wester": 5863,
      "notion": 5864,
      "ister": 5865,
      "hazard": 5866,
      "optim": 5867,
      "opposit": 5868,
      "igree": 5869,
      "clau": 5870,
      "clash": 5871,
      "clue": 5872,
      "derrida": 5873,
      "characteristic": 5874,
      "flail": 5875,
      "mely": 5876,
      "metal": 5877,
      "crew": 5878,
      "guest": 5879,
      "guided": 5880,
      "ourselves": 5881,
      "blast": 5882,
      "phony": 5883,
      "physical": 5884,
      "directions": 5885,
      "offend": 5886,
      "lower": 5887,
      "joel": 5888,
      "jointed": 5889,
      "trapped": 5890,
      "matically": 5891,
      "maturity": 5892,
      "cobbled": 5893,
      "colored": 5894,
      "grating": 5895,
      "cannes": 5896,
      "overtly": 5897,
      "surreal": 5898,
      "discor": 5899,
      "disjointed": 5900,
      "wattage": 5901,
      "crity": 5902,
      "willis": 5903,
      "submer": 5904,
      "subtitles": 5905,
      "seren": 5906,
      "wrenching": 5907,
      "tales": 5908,
      "mere": 5909,
      "realizing": 5910,
      "dud": 5911,
      "warfare": 5912,
      "smiles": 5913,
      "freeman": 5914,
      "hokum": 5915,
      "awak": 5916,
      "tripe": 5917,
      "triangle": 5918,
      "undermin": 5919,
      "undercuts": 5920,
      "syn": 5921,
      "syst": 5922,
      "laughed": 5923,
      "ocused": 5924,
      "plotless": 5925,
      "parker": 5926,
      "styles": 5927,
      "cheer": 5928,
      "carn": 5929,
      "carry": 5930,
      "capacity": 5931,
      "lightweight": 5932,
      "rowling": 5933,
      "rowdy": 5934,
      "ighter": 5935,
      "scenic": 5936,
      "swee": 5937,
      "swear": 5938,
      "colors": 5939,
      "surprised": 5940,
      "thrilling": 5941,
      "applies": 5942,
      "shower": 5943,
      "showcas": 5944,
      "antics": 5945,
      "higher": 5946,
      "highest": 5947,
      "athle": 5948,
      "athlet": 5949,
      "misguided": 5950,
      "freshly": 5951,
      "dreck": 5952,
      "sequential": 5953,
      "brook": 5954,
      "defi": 5955,
      "documentaries": 5956,
      "generates": 5957,
      "sinks": 5958,
      "dialog": 5959,
      "appet": 5960,
      "maker": 5961,
      "cade": 5962,
      "bread": 5963,
      "forest": 5964,
      "formal": 5965,
      "specif": 5966,
      "classical": 5967,
      "glum": 5968,
      "ridicule": 5969,
      "musicians": 5970,
      "closing": 5971,
      "clothes": 5972,
      "laid": 5973,
      "supernatural": 5974,
      "summertime": 5975,
      "hilarity": 5976,
      "midway": 5977,
      "teeny": 5978,
      "hyp": 5979,
      "sensibilities": 5980,
      "terribly": 5981,
      "expectation": 5982,
      "quirk": 5983,
      "lists": 5984,
      "engaged": 5985,
      "engagingly": 5986,
      "stronger": 5987,
      "frida": 5988,
      "ballistic": 5989,
      "mainly": 5990,
      "populated": 5991,
      "subtly": 5992,
      "subtext": 5993,
      "melan": 5994,
      "scha": 5995,
      "schumach": 5996,
      "schneider": 5997,
      "promised": 5998,
      "lasting": 5999,
      "insightfully": 6000,
      "effortless": 6001,
      "twisty": 6002,
      "exploiting": 6003,
      "reasons": 6004,
      "reasonably": 6005,
      "student": 6006,
      "burden": 6007,
      "surely": 6008,
      "dramatics": 6009,
      "curling": 6010,
      "frailty": 6011,
      "uttering": 6012,
      "slowly": 6013,
      "damon": 6014,
      "punching": 6015,
      "punishment": 6016,
      "projects": 6017,
      "importance": 6018,
      "aimed": 6019,
      "aimless": 6020,
      "positively": 6021,
      "hopeless": 6022,
      "virul": 6023,
      "dumbed": 6024,
      "inspires": 6025,
      "problematic": 6026,
      "banter": 6027,
      "banality": 6028,
      "fantasies": 6029,
      "nonexistent": 6030,
      "onym": 6031,
      "secondhand": 6032,
      "cali": 6033,
      "fancy": 6034,
      "dimension": 6035,
      "snap": 6036,
      "boyant": 6037,
      "recommendation": 6038,
      "depressed": 6039,
      "exceptionally": 6040,
      "pedigree": 6041,
      "ruined": 6042,
      "naturalistic": 6043,
      "possibility": 6044,
      "spectacularly": 6045,
      "combined": 6046,
      "metro": 6047,
      "pulpy": 6048,
      "stunts": 6049,
      "necessarily": 6050,
      "presentation": 6051,
      "imaginatively": 6052,
      "shape": 6053,
      "consciously": 6054,
      "labor": 6055,
      "laden": 6056,
      "infomer": 6057,
      "fluffy": 6058,
      "observant": 6059,
      "celebrated": 6060,
      "followed": 6061,
      "cuit": 6062,
      "savage": 6063,
      "costner": 6064,
      "costume": 6065,
      "sloppily": 6066,
      "mediocrity": 6067,
      "sexuality": 6068,
      "layer": 6069,
      "rapes": 6070,
      "scoo": 6071,
      "marvelously": 6072,
      "nuance": 6073,
      "rendering": 6074,
      "unfocused": 6075,
      "sporadic": 6076,
      "guilt": 6077,
      "elegantly": 6078,
      "biopic": 6079,
      "twenty": 6080,
      "wilson": 6081,
      "winds": 6082,
      "aliens": 6083,
      "philosophy": 6084,
      "movement": 6085,
      "movements": 6086,
      "court": 6087,
      "ethnic": 6088,
      "boredom": 6089,
      "gifts": 6090,
      "enticing": 6091,
      "shadyac": 6092,
      "diesel": 6093,
      "cartoonish": 6094,
      "monstrous": 6095,
      "busy": 6096,
      "ferocity": 6097,
      "haphazard": 6098,
      "jeal": 6099,
      "madden": 6100,
      "shameless": 6101,
      "metaph": 6102,
      "embracing": 6103,
      "traditionally": 6104,
      "significantly": 6105,
      "literary": 6106,
      "wicked": 6107,
      "enterprise": 6108,
      "diverse": 6109,
      "sportsmen": 6110,
      "challenges": 6111,
      "enormous": 6112,
      "anderson": 6113,
      "disguised": 6114,
      "distinguish": 6115,
      "floor": 6116,
      "hallmark": 6117,
      "judgment": 6118,
      "six": 6119,
      "incisive": 6120,
      "succumb": 6121,
      "continues": 6122,
      "biographical": 6123,
      "demonstrates": 6124,
      "properly": 6125,
      "curiosity": 6126,
      "recognized": 6127,
      "niches": 6128,
      "sleeve": 6129,
      "sleepless": 6130,
      "received": 6131,
      "crosso": 6132,
      "domin": 6133,
      "jolt": 6134,
      "jolts": 6135,
      "massive": 6136,
      "slipper": 6137,
      "educational": 6138,
      "loosely": 6139,
      "idealism": 6140,
      "climactic": 6141,
      "muddle": 6142,
      "dynamics": 6143,
      "innovative": 6144,
      "improvised": 6145,
      "longest": 6146,
      "nifer": 6147,
      "inherent": 6148,
      "excesses": 6149,
      "scott": 6150,
      "dragonfly": 6151,
      "lucky": 6152,
      "stretched": 6153,
      "stretches": 6154,
      "smoochy": 6155,
      "secretary": 6156,
      "inconsequential": 6157,
      "inducing": 6158,
      "introduction": 6159,
      "adrenalin": 6160,
      "macabre": 6161,
      "racial": 6162,
      "swooping": 6163,
      "tendency": 6164,
      "alleged": 6165,
      "heights": 6166,
      "cohesive": 6167,
      "slimed": 6168,
      "sorrowful": 6169,
      "collapses": 6170,
      "olivi": 6171,
      "inexplicable": 6172,
      "resembling": 6173,
      "iconocl": 6174,
      "buttons": 6175,
      "controversy": 6176,
      "similarly": 6177,
      "contrivances": 6178,
      "nicholas": 6179,
      "advantage": 6180,
      "amiable": 6181,
      "shrill": 6182,
      "procedural": 6183,
      "evokes": 6184,
      "tepid": 6185,
      "flesh": 6186,
      "flamboyant": 6187,
      "spontaneity": 6188,
      "claustrophobic": 6189,
      "dawson": 6190,
      "tattoo": 6191,
      "twink": 6192,
      "practically": 6193,
      "compulsively": 6194,
      "dredge": 6195,
      "dishonest": 6196,
      "elizabeth": 6197,
      "gimmick": 6198,
      "ransack": 6199,
      "injects": 6200,
      "encouraging": 6201,
      "repulsive": 6202,
      "assembled": 6203,
      "academy": 6204,
      "employ": 6205,
      "peppered": 6206,
      "treasure": 6207,
      "animatronic": 6208,
      "snipes": 6209,
      "bopper": 6210,
      "category": 6211,
      "gigg": 6212,
      "junior": 6213,
      "lurches": 6214,
      "nickleby": 6215,
      "wrestling": 6216,
      "ingredients": 6217,
      "champion": 6218,
      "amorality": 6219,
      "prejudice": 6220,
      "blatant": 6221,
      "phoniness": 6222,
      "comparison": 6223,
      "belongs": 6224,
      "technique": 6225,
      "instincts": 6226,
      "jennifer": 6227,
      "kitchen": 6228,
      "mumbo": 6229,
      "mongering": 6230,
      "ocean": 6231,
      "pessim": 6232,
      "russian": 6233,
      "inimitable": 6234,
      "information": 6235,
      "informative": 6236,
      "redemption": 6237,
      "staggeringly": 6238,
      "orchestr": 6239,
      "devolves": 6240,
      "supremely": 6241,
      "pertinent": 6242,
      "manufactured": 6243,
      "discord": 6244,
      "awakening": 6245,
      "showcases": 6246,
      "athletes": 6247,
      "schumacher": 6248,
      "infomercial": 6249,
      "crossover": 6250,
      "iconoclastic": 6251,
      "40": 6252,
      "95": 6253,
      "bin": 6254,
      "bout": 6255,
      "bard": 6256,
      "bage": 6257,
      "cof": 6258,
      "cers": 6259,
      "clow": 6260,
      "crip": 6261,
      "ccable": 6262,
      "dd": 6263,
      "dun": 6264,
      "dating": 6265,
      "dance": 6266,
      "dashing": 6267,
      "eter": 6268,
      "eous": 6269,
      "echo": 6270,
      "echel": 6271,
      "estrang": 6272,
      "fto": 6273,
      "fits": 6274,
      "fid": 6275,
      "fame": 6276,
      "gage": 6277,
      "hart": 6278,
      "hast": 6279,
      "hust": 6280,
      "hatt": 6281,
      "hupper": 6282,
      "jr": 6283,
      "kne": 6284,
      "kwer": 6285,
      "lof": 6286,
      "las": 6287,
      "lau": 6288,
      "lick": 6289,
      "lane": 6290,
      "lags": 6291,
      "lumber": 6292,
      "lumin": 6293,
      "mex": 6294,
      "nour": 6295,
      "ox": 6296,
      "pes": 6297,
      "pony": 6298,
      "penter": 6299,
      "praise": 6300,
      "plym": 6301,
      "rying": 6302,
      "rors": 6303,
      "ritch": 6304,
      "rhap": 6305,
      "sof": 6306,
      "sam": 6307,
      "sant": 6308,
      "switch": 6309,
      "tle": 6310,
      "tang": 6311,
      "tically": 6312,
      "tends": 6313,
      "tank": 6314,
      "task": 6315,
      "va": 6316,
      "vre": 6317,
      "vents": 6318,
      "vak": 6319,
      "wound": 6320,
      "xed": 6321,
      "thony": 6322,
      "inse": 6323,
      "inev": 6324,
      "inking": 6325,
      "inian": 6326,
      "influ": 6327,
      "inuit": 6328,
      "incorpor": 6329,
      "independent": 6330,
      "anc": 6331,
      "anat": 6332,
      "anne": 6333,
      "angu": 6334,
      "anza": 6335,
      "anthony": 6336,
      "eric": 6337,
      "erable": 6338,
      "erile": 6339,
      "ensu": 6340,
      "enlight": 6341,
      "ensure": 6342,
      "resc": 6343,
      "reacting": 6344,
      "report": 6345,
      "reefs": 6346,
      "ators": 6347,
      "atfalls": 6348,
      "onious": 6349,
      "stan": 6350,
      "stab": 6351,
      "stately": 6352,
      "stitch": 6353,
      "stamp": 6354,
      "orant": 6355,
      "ority": 6356,
      "ition": 6357,
      "itage": 6358,
      "itute": 6359,
      "andal": 6360,
      "alt": 6361,
      "alds": 6362,
      "alleg": 6363,
      "esy": 6364,
      "isol": 6365,
      "arter": 6366,
      "argue": 6367,
      "arrest": 6368,
      "arrives": 6369,
      "lywood": 6370,
      "toback": 6371,
      "tomor": 6372,
      "eds": 6373,
      "eder": 6374,
      "edits": 6375,
      "ica": 6376,
      "icately": 6377,
      "leth": 6378,
      "lean": 6379,
      "legu": 6380,
      "leash": 6381,
      "lefto": 6382,
      "asion": 6383,
      "asper": 6384,
      "asleep": 6385,
      "associ": 6386,
      "ilk": 6387,
      "illy": 6388,
      "chin": 6389,
      "chop": 6390,
      "chest": 6391,
      "chateau": 6392,
      "chilly": 6393,
      "moon": 6394,
      "molest": 6395,
      "elic": 6396,
      "elab": 6397,
      "elity": 6398,
      "elbow": 6399,
      "acon": 6400,
      "acum": 6401,
      "acency": 6402,
      "ioned": 6403,
      "ionary": 6404,
      "semi": 6405,
      "seven": 6406,
      "semen": 6407,
      "seattle": 6408,
      "seamy": 6409,
      "beer": 6410,
      "bewilder": 6411,
      "beacon": 6412,
      "uncon": 6413,
      "unbl": 6414,
      "uncertain": 6415,
      "untalented": 6416,
      "unchy": 6417,
      "unmention": 6418,
      "unconventional": 6419,
      "unrealized": 6420,
      "unbear": 6421,
      "unintentionally": 6422,
      "unassuming": 6423,
      "veying": 6424,
      "veered": 6425,
      "imer": 6426,
      "immer": 6427,
      "dean": 6428,
      "dear": 6429,
      "defe": 6430,
      "degra": 6431,
      "decor": 6432,
      "decade": 6433,
      "loser": 6434,
      "loving": 6435,
      "loyal": 6436,
      "vile": 6437,
      "abstr": 6438,
      "ghan": 6439,
      "map": 6440,
      "radi": 6441,
      "rage": 6442,
      "raid": 6443,
      "raind": 6444,
      "raunchy": 6445,
      "vert": 6446,
      "vering": 6447,
      "rogue": 6448,
      "utions": 6449,
      "whine": 6450,
      "whiny": 6451,
      "terry": 6452,
      "widow": 6453,
      "noble": 6454,
      "novak": 6455,
      "river": 6456,
      "rigor": 6457,
      "aded": 6458,
      "adject": 6459,
      "addict": 6460,
      "address": 6461,
      "amid": 6462,
      "dips": 6463,
      "shu": 6464,
      "shri": 6465,
      "shir": 6466,
      "shod": 6467,
      "shine": 6468,
      "irrelev": 6469,
      "feast": 6470,
      "feathers": 6471,
      "outcome": 6472,
      "outside": 6473,
      "pering": 6474,
      "perfunct": 6475,
      "ayas": 6476,
      "sport": 6477,
      "spaces": 6478,
      "exposed": 6479,
      "exasper": 6480,
      "conqu": 6481,
      "convers": 6482,
      "constru": 6483,
      "convol": 6484,
      "consequences": 6485,
      "convey": 6486,
      "conveying": 6487,
      "odys": 6488,
      "aptrap": 6489,
      "scare": 6490,
      "scroo": 6491,
      "poses": 6492,
      "artif": 6493,
      "doct": 6494,
      "goth": 6495,
      "eming": 6496,
      "quarter": 6497,
      "manhatt": 6498,
      "astron": 6499,
      "astray": 6500,
      "urine": 6501,
      "urry": 6502,
      "urgent": 6503,
      "idan": 6504,
      "idelity": 6505,
      "prevents": 6506,
      "takers": 6507,
      "pear": 6508,
      "peare": 6509,
      "progress": 6510,
      "heist": 6511,
      "heimer": 6512,
      "ellingly": 6513,
      "weary": 6514,
      "webs": 6515,
      "notting": 6516,
      "trim": 6517,
      "evans": 6518,
      "likeable": 6519,
      "opher": 6520,
      "oppress": 6521,
      "opening": 6522,
      "upbeat": 6523,
      "updating": 6524,
      "clut": 6525,
      "clad": 6526,
      "claptrap": 6527,
      "boom": 6528,
      "bodi": 6529,
      "bothers": 6530,
      "boiler": 6531,
      "boasting": 6532,
      "ittedly": 6533,
      "teens": 6534,
      "fling": 6535,
      "flour": 6536,
      "pton": 6537,
      "creen": 6538,
      "gues": 6539,
      "guff": 6540,
      "blame": 6541,
      "blings": 6542,
      "blues": 6543,
      "blah": 6544,
      "blax": 6545,
      "blurry": 6546,
      "bleak": 6547,
      "jolie": 6548,
      "bruck": 6549,
      "print": 6550,
      "pratfalls": 6551,
      "strate": 6552,
      "dramas": 6553,
      "insistent": 6554,
      "coc": 6555,
      "covers": 6556,
      "cook": 6557,
      "assayas": 6558,
      "evenings": 6559,
      "grin": 6560,
      "grinder": 6561,
      "etic": 6562,
      "canon": 6563,
      "canad": 6564,
      "overexposed": 6565,
      "performed": 6566,
      "grew": 6567,
      "grey": 6568,
      "dismissed": 6569,
      "discus": 6570,
      "watery": 6571,
      "tykwer": 6572,
      "ploitation": 6573,
      "yours": 6574,
      "screw": 6575,
      "screams": 6576,
      "submarine": 6577,
      "ortions": 6578,
      "merch": 6579,
      "asham": 6580,
      "lifetime": 6581,
      "screening": 6582,
      "dude": 6583,
      "dupe": 6584,
      "otion": 6585,
      "otically": 6586,
      "actions": 6587,
      "afraid": 6588,
      "linger": 6589,
      "compellingly": 6590,
      "impart": 6591,
      "hoo": 6592,
      "hokey": 6593,
      "hostage": 6594,
      "aware": 6595,
      "humorless": 6596,
      "news": 6597,
      "cino": 6598,
      "auteu": 6599,
      "gray": 6600,
      "fren": 6601,
      "casts": 6602,
      "righteous": 6603,
      "ocy": 6604,
      "cheat": 6605,
      "ignorant": 6606,
      "below": 6607,
      "owned": 6608,
      "humane": 6609,
      "humanizing": 6610,
      "carpenter": 6611,
      "carrying": 6612,
      "everlasting": 6613,
      "enjoyably": 6614,
      "backmas": 6615,
      "sweat": 6616,
      "media": 6617,
      "caretakers": 6618,
      "porno": 6619,
      "isms": 6620,
      "choo": 6621,
      "choices": 6622,
      "showtime": 6623,
      "ppant": 6624,
      "misanthro": 6625,
      "sentence": 6626,
      "shoulders": 6627,
      "possess": 6628,
      "turntab": 6629,
      "craven": 6630,
      "morality": 6631,
      "sucks": 6632,
      "sinister": 6633,
      "dities": 6634,
      "staring": 6635,
      "steal": 6636,
      "steers": 6637,
      "cutesy": 6638,
      "fiend": 6639,
      "passable": 6640,
      "extension": 6641,
      "aftertaste": 6642,
      "species": 6643,
      "speculation": 6644,
      "contempt": 6645,
      "anime": 6646,
      "ibal": 6647,
      "ease": 6648,
      "glaring": 6649,
      "barry": 6650,
      "bargain": 6651,
      "maternal": 6652,
      "satisfyingly": 6653,
      "gery": 6654,
      "geriat": 6655,
      "reno": 6656,
      "renowned": 6657,
      "struck": 6658,
      "mike": 6659,
      "sade": 6660,
      "walsh": 6661,
      "dullard": 6662,
      "dullness": 6663,
      "sided": 6664,
      "laur": 6665,
      "happened": 6666,
      "complacency": 6667,
      "nair": 6668,
      "naive": 6669,
      "sensibility": 6670,
      "universe": 6671,
      "expecting": 6672,
      "cleverness": 6673,
      "operative": 6674,
      "darker": 6675,
      "darkly": 6676,
      "sorority": 6677,
      "calls": 6678,
      "headed": 6679,
      "pained": 6680,
      "basis": 6681,
      "basement": 6682,
      "schtick": 6683,
      "impressed": 6684,
      "solidly": 6685,
      "brilliance": 6686,
      "successfully": 6687,
      "explode": 6688,
      "matters": 6689,
      "dragons": 6690,
      "lucy": 6691,
      "saying": 6692,
      "flawless": 6693,
      "damning": 6694,
      "punk": 6695,
      "psyche": 6696,
      "extraordin": 6697,
      "aimlessly": 6698,
      "drivel": 6699,
      "finely": 6700,
      "beats": 6701,
      "subtlest": 6702,
      "drops": 6703,
      "hopelessly": 6704,
      "prior": 6705,
      "stoop": 6706,
      "deaths": 6707,
      "sympath": 6708,
      "garbage": 6709,
      "pub": 6710,
      "puff": 6711,
      "puerile": 6712,
      "20th": 6713,
      "calm": 6714,
      "admit": 6715,
      "admittedly": 6716,
      "growth": 6717,
      "snl": 6718,
      "explains": 6719,
      "blandness": 6720,
      "simpleminded": 6721,
      "creepiness": 6722,
      "fireballs": 6723,
      "strike": 6724,
      "disappointment": 6725,
      "ruth": 6726,
      "crafty": 6727,
      "dana": 6728,
      "smokey": 6729,
      "combat": 6730,
      "gracefully": 6731,
      "amaze": 6732,
      "legged": 6733,
      "absurdities": 6734,
      "ristic": 6735,
      "sustained": 6736,
      "double": 6737,
      "pulse": 6738,
      "weighty": 6739,
      "resistance": 6740,
      "uniquely": 6741,
      "ritter": 6742,
      "expresses": 6743,
      "indulgence": 6744,
      "breathing": 6745,
      "breathes": 6746,
      "tub": 6747,
      "tuck": 6748,
      "tuxed": 6749,
      "infuses": 6750,
      "infidelity": 6751,
      "transpar": 6752,
      "provoke": 6753,
      "provoked": 6754,
      "critics": 6755,
      "stops": 6756,
      "stoppers": 6757,
      "gaze": 6758,
      "hitler": 6759,
      "sources": 6760,
      "christopher": 6761,
      "precision": 6762,
      "corniest": 6763,
      "fearlessness": 6764,
      "feardot": 6765,
      "intentioned": 6766,
      "sharply": 6767,
      "nuanced": 6768,
      "wednes": 6769,
      "reminding": 6770,
      "concert": 6771,
      "heartedness": 6772,
      "productions": 6773,
      "juice": 6774,
      "conclusive": 6775,
      "ineptly": 6776,
      "momentum": 6777,
      "spirituality": 6778,
      "devastatingly": 6779,
      "panic": 6780,
      "ethical": 6781,
      "compromise": 6782,
      "avoids": 6783,
      "bollywood": 6784,
      "mistak": 6785,
      "consciousness": 6786,
      "circle": 6787,
      "circuit": 6788,
      "pileup": 6789,
      "quentin": 6790,
      "prophe": 6791,
      "proportions": 6792,
      "iffle": 6793,
      "shooting": 6794,
      "repeated": 6795,
      "towards": 6796,
      "glorified": 6797,
      "brightly": 6798,
      "godard": 6799,
      "pushes": 6800,
      "salton": 6801,
      "struggled": 6802,
      "awkwardness": 6803,
      "damaged": 6804,
      "bonding": 6805,
      "tunes": 6806,
      "tunney": 6807,
      "invasion": 6808,
      "traditions": 6809,
      "significance": 6810,
      "fueled": 6811,
      "ovan": 6812,
      "reduces": 6813,
      "acceptable": 6814,
      "wholesome": 6815,
      "novels": 6816,
      "commercialism": 6817,
      "intricately": 6818,
      "stirs": 6819,
      "austin": 6820,
      "continuity": 6821,
      "distinctive": 6822,
      "biography": 6823,
      "pitfalls": 6824,
      "demonstrating": 6825,
      "expands": 6826,
      "recognize": 6827,
      "languorous": 6828,
      "baggage": 6829,
      "picked": 6830,
      "wisdom": 6831,
      "static": 6832,
      "chaos": 6833,
      "teachers": 6834,
      "izamo": 6835,
      "awarded": 6836,
      "masses": 6837,
      "oozing": 6838,
      "randall": 6839,
      "thousand": 6840,
      "recycling": 6841,
      "education": 6842,
      "conjures": 6843,
      "negative": 6844,
      "woozy": 6845,
      "shadowy": 6846,
      "shift": 6847,
      "innovation": 6848,
      "effer": 6849,
      "efficient": 6850,
      "idiocy": 6851,
      "shrek": 6852,
      "dubious": 6853,
      "communic": 6854,
      "extravaganza": 6855,
      "remaining": 6856,
      "commonplace": 6857,
      "induced": 6858,
      "sensationalism": 6859,
      "foolish": 6860,
      "aaaa": 6861,
      "racist": 6862,
      "maxim": 6863,
      "constantly": 6864,
      "consumed": 6865,
      "margin": 6866,
      "laziness": 6867,
      "baffling": 6868,
      "remotely": 6869,
      "eerily": 6870,
      "swooning": 6871,
      "weepy": 6872,
      "cohesion": 6873,
      "hostile": 6874,
      "pollute": 6875,
      "pollution": 6876,
      "maintaining": 6877,
      "collapse": 6878,
      "vietnamese": 6879,
      "pilot": 6880,
      "xxx": 6881,
      "enhances": 6882,
      "emphas": 6883,
      "deliberate": 6884,
      "1984": 6885,
      "decidedly": 6886,
      "sanctimony": 6887,
      "sanctimonious": 6888,
      "donovan": 6889,
      "chiefly": 6890,
      "shakespeare": 6891,
      "placement": 6892,
      "impulsive": 6893,
      "episodes": 6894,
      "drunken": 6895,
      "flippant": 6896,
      "honor": 6897,
      "hitchcock": 6898,
      "gosling": 6899,
      "mechanical": 6900,
      "assassin": 6901,
      "stewart": 6902,
      "disturbing": 6903,
      "contribution": 6904,
      "opportunities": 6905,
      "european": 6906,
      "fundamentally": 6907,
      "ville": 6908,
      "rehash": 6909,
      "arguably": 6910,
      "chasing": 6911,
      "searching": 6912,
      "unrelentingly": 6913,
      "debate": 6914,
      "concentrates": 6915,
      "understated": 6916,
      "clockstoppers": 6917,
      "signposts": 6918,
      "bursts": 6919,
      "immersed": 6920,
      "establishes": 6921,
      "companionable": 6922,
      "excruciatingly": 6923,
      "cautionary": 6924,
      "lulled": 6925,
      "victories": 6926,
      "roberto": 6927,
      "youthful": 6928,
      "antonia": 6929,
      "obscure": 6930,
      "bordering": 6931,
      "hysterics": 6932,
      "juliette": 6933,
      "fabricated": 6934,
      "narcissism": 6935,
      "dutiful": 6936,
      "michel": 6937,
      "reassuring": 6938,
      "arrogance": 6939,
      "chabrol": 6940,
      "impeccable": 6941,
      "losers": 6942,
      "shaggy": 6943,
      "clause": 6944,
      "flailing": 6945,
      "serenity": 6946,
      "brooklyn": 6947,
      "breadth": 6948,
      "specifically": 6949,
      "hypnotic": 6950,
      "quirkily": 6951,
      "melancho": 6952,
      "schaeffer": 6953,
      "burdened": 6954,
      "scooby": 6955,
      "maddeningly": 6956,
      "slippery": 6957,
      "coffee": 6958,
      "clown": 6959,
      "crippled": 6960,
      "echoes": 6961,
      "echelons": 6962,
      "estranged": 6963,
      "hastily": 6964,
      "huppert": 6965,
      "lofty": 6966,
      "lumbering": 6967,
      "luminous": 6968,
      "mexic": 6969,
      "plympton": 6970,
      "ritchie": 6971,
      "santa": 6972,
      "inevitable": 6973,
      "anatomical": 6974,
      "rescue": 6975,
      "allegory": 6976,
      "isolation": 6977,
      "tomorrow": 6978,
      "leguizamo": 6979,
      "leftovers": 6980,
      "elaborate": 6981,
      "acumen": 6982,
      "unblinking": 6983,
      "abstract": 6984,
      "raindrop": 6985,
      "adjective": 6986,
      "irrelevancy": 6987,
      "perfunctory": 6988,
      "odyssey": 6989,
      "scrooge": 6990,
      "artifice": 6991,
      "manhattan": 6992,
      "website": 6993,
      "guffaw": 6994,
      "blaxploitation": 6995,
      "bruckheimer": 6996,
      "auteuil": 6997,
      "backmasking": 6998,
      "geriatric": 6999,
      "extraordinarily": 7000,
      "tuxedo": 7001,
      "feardotcom": 7002,
      "wednesday": 7003,
      "60": 7004,
      "80": 7005,
      "84": 7006,
      "99": 7007,
      "aes": 7008,
      "amo": 7009,
      "awar": 7010,
      "bes": 7011,
      "bess": 7012,
      "bart": 7013,
      "bial": 7014,
      "boun": 7015,
      "bought": 7016,
      "bian": 7017,
      "bones": 7018,
      "bags": 7019,
      "blip": 7020,
      "bump": 7021,
      "banger": 7022,
      "baked": 7023,
      "blips": 7024,
      "cod": 7025,
      "cking": 7026,
      "cical": 7027,
      "crossing": 7028,
      "cinder": 7029,
      "ccino": 7030,
      "dits": 7031,
      "dles": 7032,
      "dren": 7033,
      "eight": 7034,
      "easter": 7035,
      "fus": 7036,
      "fond": 7037,
      "faces": 7038,
      "flip": 7039,
      "gers": 7040,
      "gong": 7041,
      "gutter": 7042,
      "hers": 7043,
      "hates": 7044,
      "hired": 7045,
      "hane": 7046,
      "hodge": 7047,
      "ius": 7048,
      "ibles": 7049,
      "jess": 7050,
      "jake": 7051,
      "ko": 7052,
      "kal": 7053,
      "kur": 7054,
      "kine": 7055,
      "kies": 7056,
      "kaf": 7057,
      "kho": 7058,
      "kilt": 7059,
      "lis": 7060,
      "lend": 7061,
      "lav": 7062,
      "liness": 7063,
      "mé": 7064,
      "mate": 7065,
      "mish": 7066,
      "mary": 7067,
      "mors": 7068,
      "mib": 7069,
      "mund": 7070,
      "mbrand": 7071,
      "num": 7072,
      "nur": 7073,
      "nine": 7074,
      "nial": 7075,
      "nash": 7076,
      "nud": 7077,
      "nible": 7078,
      "naked": 7079,
      "ots": 7080,
      "ocr": 7081,
      "ographed": 7082,
      "pis": 7083,
      "pent": 7084,
      "pac": 7085,
      "pous": 7086,
      "pable": 7087,
      "plight": 7088,
      "pump": 7089,
      "penetr": 7090,
      "podge": 7091,
      "praises": 7092,
      "rou": 7093,
      "rion": 7094,
      "rally": 7095,
      "sly": 7096,
      "som": 7097,
      "sap": 7098,
      "send": 7099,
      "sky": 7100,
      "sought": 7101,
      "slog": 7102,
      "squir": 7103,
      "sized": 7104,
      "swords": 7105,
      "sund": 7106,
      "sword": 7107,
      "tout": 7108,
      "tence": 7109,
      "tens": 7110,
      "tatter": 7111,
      "tmull": 7112,
      "uri": 7113,
      "uously": 7114,
      "vast": 7115,
      "wack": 7116,
      "wins": 7117,
      "wash": 7118,
      "wdry": 7119,
      "washed": 7120,
      "wander": 7121,
      "wrote": 7122,
      "xon": 7123,
      "xing": 7124,
      "yon": 7125,
      "yce": 7126,
      "yest": 7127,
      "ziness": 7128,
      "thy": 7129,
      "thman": 7130,
      "thur": 7131,
      "inth": 7132,
      "infant": 7133,
      "innu": 7134,
      "inquis": 7135,
      "inconsistent": 7136,
      "anem": 7137,
      "anonym": 7138,
      "ert": 7139,
      "erin": 7140,
      "erday": 7141,
      "erspo": 7142,
      "erfig": 7143,
      "endo": 7144,
      "enjo": 7145,
      "ennial": 7146,
      "rese": 7147,
      "retal": 7148,
      "reject": 7149,
      "revision": 7150,
      "reserved": 7151,
      "restrict": 7152,
      "reviews": 7153,
      "rembrand": 7154,
      "thew": 7155,
      "theories": 7156,
      "ato": 7157,
      "atus": 7158,
      "atop": 7159,
      "stare": 7160,
      "stell": 7161,
      "states": 7162,
      "stones": 7163,
      "stoked": 7164,
      "stacles": 7165,
      "orland": 7166,
      "orium": 7167,
      "itations": 7168,
      "anda": 7169,
      "andaries": 7170,
      "aled": 7171,
      "alab": 7172,
      "isly": 7173,
      "isse": 7174,
      "isra": 7175,
      "isine": 7176,
      "isions": 7177,
      "arist": 7178,
      "arious": 7179,
      "arbit": 7180,
      "arrow": 7181,
      "ofus": 7182,
      "todd": 7183,
      "icable": 7184,
      "lex": 7185,
      "assum": 7186,
      "asels": 7187,
      "chom": 7188,
      "chio": 7189,
      "chord": 7190,
      "chump": 7191,
      "mode": 7192,
      "moves": 7193,
      "elusive": 7194,
      "enters": 7195,
      "accum": 7196,
      "acute": 7197,
      "seated": 7198,
      "betra": 7199,
      "beck": 7200,
      "bewit": 7201,
      "beguil": 7202,
      "unit": 7203,
      "unky": 7204,
      "unsatisfying": 7205,
      "united": 7206,
      "uncreative": 7207,
      "unreco": 7208,
      "uninvolving": 7209,
      "unrewarding": 7210,
      "unbalanced": 7211,
      "uncomfortable": 7212,
      "unapo": 7213,
      "unpleasantly": 7214,
      "undisciplined": 7215,
      "unmistak": 7216,
      "imen": 7217,
      "imal": 7218,
      "imperson": 7219,
      "deci": 7220,
      "demise": 7221,
      "debt": 7222,
      "deja": 7223,
      "detract": 7224,
      "detached": 7225,
      "ulating": 7226,
      "lore": 7227,
      "lose": 7228,
      "vies": 7229,
      "vibe": 7230,
      "abc": 7231,
      "ables": 7232,
      "abundant": 7233,
      "maid": 7234,
      "mamet": 7235,
      "mawk": 7236,
      "libr": 7237,
      "lific": 7238,
      "lized": 7239,
      "rapt": 7240,
      "raved": 7241,
      "razz": 7242,
      "raped": 7243,
      "rachel": 7244,
      "verable": 7245,
      "versat": 7246,
      "verbial": 7247,
      "rose": 7248,
      "whip": 7249,
      "sus": 7250,
      "suitable": 7251,
      "compo": 7252,
      "comics": 7253,
      "wire": 7254,
      "noise": 7255,
      "rian": 7256,
      "adding": 7257,
      "adams": 7258,
      "cted": 7259,
      "witherspo": 7260,
      "amish": 7261,
      "diers": 7262,
      "digest": 7263,
      "divor": 7264,
      "dilem": 7265,
      "geon": 7266,
      "olf": 7267,
      "iring": 7268,
      "fet": 7269,
      "feet": 7270,
      "fetish": 7271,
      "outright": 7272,
      "perm": 7273,
      "spice": 7274,
      "spital": 7275,
      "extent": 7276,
      "exxon": 7277,
      "conform": 7278,
      "concil": 7279,
      "oding": 7280,
      "ouses": 7281,
      "scoring": 7282,
      "scrape": 7283,
      "poo": 7284,
      "poon": 7285,
      "pole": 7286,
      "nebri": 7287,
      "sodi": 7288,
      "soever": 7289,
      "soars": 7290,
      "doofus": 7291,
      "active": 7292,
      "gore": 7293,
      "gosi": 7294,
      "emous": 7295,
      "quence": 7296,
      "quet": 7297,
      "quandaries": 7298,
      "button": 7299,
      "area": 7300,
      "manship": 7301,
      "astically": 7302,
      "urs": 7303,
      "urgently": 7304,
      "ids": 7305,
      "tavern": 7306,
      "tawdry": 7307,
      "pest": 7308,
      "austr": 7309,
      "auster": 7310,
      "plum": 7311,
      "plicate": 7312,
      "plague": 7313,
      "prolong": 7314,
      "proved": 7315,
      "proverbial": 7316,
      "hey": 7317,
      "wet": 7318,
      "weasels": 7319,
      "notorious": 7320,
      "timed": 7321,
      "timid": 7322,
      "trace": 7323,
      "hawai": 7324,
      "indesc": 7325,
      "indication": 7326,
      "intact": 7327,
      "opt": 7328,
      "opens": 7329,
      "upscale": 7330,
      "clam": 7331,
      "clenching": 7332,
      "clunky": 7333,
      "inee": 7334,
      "boost": 7335,
      "tea": 7336,
      "teeming": 7337,
      "goods": 7338,
      "goodwill": 7339,
      "goodfell": 7340,
      "lesser": 7341,
      "eped": 7342,
      "humans": 7343,
      "heritage": 7344,
      "blon": 7345,
      "bliss": 7346,
      "blasph": 7347,
      "bludge": 7348,
      "phil": 7349,
      "phoney": 7350,
      "mentally": 7351,
      "thrust": 7352,
      "lowbrow": 7353,
      "joie": 7354,
      "bral": 7355,
      "bris": 7356,
      "brash": 7357,
      "strings": 7358,
      "strung": 7359,
      "traff": 7360,
      "matinee": 7361,
      "insens": 7362,
      "cope": 7363,
      "cooper": 7364,
      "musc": 7365,
      "muck": 7366,
      "mushy": 7367,
      "muccino": 7368,
      "atively": 7369,
      "grun": 7370,
      "grasp": 7371,
      "grub": 7372,
      "grisly": 7373,
      "cann": 7374,
      "cano": 7375,
      "whatsoever": 7376,
      "overflowing": 7377,
      "performing": 7378,
      "wness": 7379,
      "disab": 7380,
      "disquie": 7381,
      "disregard": 7382,
      "watered": 7383,
      "cratic": 7384,
      "cratively": 7385,
      "wertmull": 7386,
      "minimal": 7387,
      "interaction": 7388,
      "interpret": 7389,
      "subordin": 7390,
      "subplots": 7391,
      "subjug": 7392,
      "serving": 7393,
      "izz": 7394,
      "talked": 7395,
      "bersome": 7396,
      "berty": 7397,
      "fathers": 7398,
      "visions": 7399,
      "player": 7400,
      "screenings": 7401,
      "duck": 7402,
      "duplicate": 7403,
      "heartening": 7404,
      "entertained": 7405,
      "ipher": 7406,
      "udent": 7407,
      "lingers": 7408,
      "freighter": 7409,
      "imps": 7410,
      "impudent": 7411,
      "hoary": 7412,
      "hospital": 7413,
      "motives": 7414,
      "underdone": 7415,
      "themed": 7416,
      "interestingly": 7417,
      "center": 7418,
      "centering": 7419,
      "centered": 7420,
      "grad": 7421,
      "obstacles": 7422,
      "famous": 7423,
      "turd": 7424,
      "turf": 7425,
      "occhio": 7426,
      "parad": 7427,
      "stylized": 7428,
      "chekho": 7429,
      "downhill": 7430,
      "avar": 7431,
      "avary": 7432,
      "avors": 7433,
      "angles": 7434,
      "bela": 7435,
      "humanist": 7436,
      "humanism": 7437,
      "cletis": 7438,
      "carved": 7439,
      "carmen": 7440,
      "carnation": 7441,
      "howard": 7442,
      "lightness": 7443,
      "ecks": 7444,
      "woody": 7445,
      "stands": 7446,
      "backward": 7447,
      "backstage": 7448,
      "backdrops": 7449,
      "cumbersome": 7450,
      "mons": 7451,
      "monument": 7452,
      "worthless": 7453,
      "betters": 7454,
      "rung": 7455,
      "runyon": 7456,
      "aki": 7457,
      "beings": 7458,
      "slender": 7459,
      "swept": 7460,
      "versity": 7461,
      "versial": 7462,
      "columb": 7463,
      "porrid": 7464,
      "powered": 7465,
      "worldly": 7466,
      "chosen": 7467,
      "showgirls": 7468,
      "anticip": 7469,
      "nervy": 7470,
      "kidman": 7471,
      "arrange": 7472,
      "wonders": 7473,
      "farcical": 7474,
      "relate": 7475,
      "daily": 7476,
      "davies": 7477,
      "miserable": 7478,
      "craig": 7479,
      "morally": 7480,
      "morbid": 7481,
      "brooding": 7482,
      "spection": 7483,
      "define": 7484,
      "generate": 7485,
      "histrion": 7486,
      "ditional": 7487,
      "steve": 7488,
      "steeped": 7489,
      "corner": 7490,
      "corpse": 7491,
      "cutter": 7492,
      "cuteness": 7493,
      "leather": 7494,
      "breezy": 7495,
      "polis": 7496,
      "pretend": 7497,
      "smartest": 7498,
      "foreign": 7499,
      "denial": 7500,
      "passing": 7501,
      "excels": 7502,
      "didactic": 7503,
      "specimen": 7504,
      "graphics": 7505,
      "voy": 7506,
      "ibly": 7507,
      "subjected": 7508,
      "glinting": 7509,
      "truck": 7510,
      "satisfactory": 7511,
      "perfection": 7512,
      "riddled": 7513,
      "closer": 7514,
      "clooney": 7515,
      "cloyingly": 7516,
      "narration": 7517,
      "elect": 7518,
      "hyper": 7519,
      "sadistic": 7520,
      "expectations": 7521,
      "predictability": 7522,
      "arsis": 7523,
      "darkness": 7524,
      "valiant": 7525,
      "ballot": 7526,
      "sorry": 7527,
      "failing": 7528,
      "failed": 7529,
      "families": 7530,
      "larry": 7531,
      "largest": 7532,
      "strained": 7533,
      "straining": 7534,
      "intelligently": 7535,
      "volume": 7536,
      "volcano": 7537,
      "population": 7538,
      "calling": 7539,
      "foibles": 7540,
      "girlfriend": 7541,
      "basket": 7542,
      "scherfig": 7543,
      "brazen": 7544,
      "signals": 7545,
      "deadpan": 7546,
      "harder": 7547,
      "holden": 7548,
      "effortlessly": 7549,
      "letter": 7550,
      "refuses": 7551,
      "reflection": 7552,
      "explosion": 7553,
      "profane": 7554,
      "proficient": 7555,
      "luke": 7556,
      "lugosi": 7557,
      "lucratively": 7558,
      "nonstop": 7559,
      "nonjudgment": 7560,
      "memories": 7561,
      "griff": 7562,
      "wave": 7563,
      "wake": 7564,
      "drab": 7565,
      "ientious": 7566,
      "considering": 7567,
      "mysteries": 7568,
      "punny": 7569,
      "twisting": 7570,
      "differences": 7571,
      "finest": 7572,
      "liners": 7573,
      "wildlife": 7574,
      "violently": 7575,
      "defined": 7576,
      "soldiers": 7577,
      "hopes": 7578,
      "privy": 7579,
      "stolid": 7580,
      "depraved": 7581,
      "suffoc": 7582,
      "garner": 7583,
      "puberty": 7584,
      "dreamed": 7585,
      "moralizing": 7586,
      "culkin": 7587,
      "refreshes": 7588,
      "believing": 7589,
      "believability": 7590,
      "splash": 7591,
      "deserving": 7592,
      "cataly": 7593,
      "purer": 7594,
      "slob": 7595,
      "cheapened": 7596,
      "decision": 7597,
      "substances": 7598,
      "recommended": 7599,
      "creeping": 7600,
      "disappointingly": 7601,
      "pedest": 7602,
      "spike": 7603,
      "combining": 7604,
      "transvest": 7605,
      "doub": 7606,
      "anchoring": 7607,
      "ripening": 7608,
      "presenting": 7609,
      "copies": 7610,
      "yawn": 7611,
      "extremist": 7612,
      "conscientious": 7613,
      "squad": 7614,
      "inclination": 7615,
      "staying": 7616,
      "friendly": 7617,
      "lengths": 7618,
      "wasting": 7619,
      "altering": 7620,
      "fluent": 7621,
      "pairing": 7622,
      "thoughtfulness": 7623,
      "celebrate": 7624,
      "celebrates": 7625,
      "bullets": 7626,
      "grotes": 7627,
      "killed": 7628,
      "indign": 7629,
      "scores": 7630,
      "truthful": 7631,
      "following": 7632,
      "cuisine": 7633,
      "hammer": 7634,
      "closely": 7635,
      "brainer": 7636,
      "brainless": 7637,
      "involve": 7638,
      "revelations": 7639,
      "apparatus": 7640,
      "jackie": 7641,
      "jackass": 7642,
      "nuances": 7643,
      "reminder": 7644,
      "remembered": 7645,
      "conceal": 7646,
      "conceits": 7647,
      "descends": 7648,
      "counterparts": 7649,
      "absurdly": 7650,
      "bias": 7651,
      "wilco": 7652,
      "triumphantly": 7653,
      "panache": 7654,
      "palpable": 7655,
      "whimper": 7656,
      "credited": 7657,
      "cheesiest": 7658,
      "lanes": 7659,
      "rewards": 7660,
      "depths": 7661,
      "purposes": 7662,
      "targeted": 7663,
      "cerebral": 7664,
      "nelson": 7665,
      "routines": 7666,
      "commerce": 7667,
      "introspection": 7668,
      "derived": 7669,
      "telegraphed": 7670,
      "crisis": 7671,
      "paints": 7672,
      "relevance": 7673,
      "competence": 7674,
      "embell": 7675,
      "dazzle": 7676,
      "ferr": 7677,
      "homo": 7678,
      "lynch": 7679,
      "terminally": 7680,
      "photographed": 7681,
      "pushiness": 7682,
      "texture": 7683,
      "shambles": 7684,
      "blowout": 7685,
      "tundra": 7686,
      "sucker": 7687,
      "sucked": 7688,
      "poetics": 7689,
      "credulous": 7690,
      "assuredly": 7691,
      "artificiality": 7692,
      "literally": 7693,
      "reaching": 7694,
      "reductions": 7695,
      "accuracy": 7696,
      "motivations": 7697,
      "relentless": 7698,
      "broadway": 7699,
      "hotel": 7700,
      "mouthed": 7701,
      "pinocchio": 7702,
      "sneak": 7703,
      "cruelty": 7704,
      "flop": 7705,
      "gusto": 7706,
      "hallmarks": 7707,
      "rousing": 7708,
      "determination": 7709,
      "noticeably": 7710,
      "integrates": 7711,
      "distinctly": 7712,
      "affirm": 7713,
      "bridge": 7714,
      "demonstrate": 7715,
      "cracker": 7716,
      "crackle": 7717,
      "curious": 7718,
      "recogniz": 7719,
      "bumbling": 7720,
      "boldly": 7721,
      "fury": 7722,
      "jumps": 7723,
      "sleeper": 7724,
      "wiseman": 7725,
      "require": 7726,
      "eloquence": 7727,
      "sudsy": 7728,
      "accomplishes": 7729,
      "embarrassed": 7730,
      "responsibility": 7731,
      "crooks": 7732,
      "korean": 7733,
      "educates": 7734,
      "neglect": 7735,
      "willingness": 7736,
      "idealistic": 7737,
      "channeling": 7738,
      "preciousness": 7739,
      "metaphorical": 7740,
      "climate": 7741,
      "strictly": 7742,
      "traveler": 7743,
      "muddled": 7744,
      "dependence": 7745,
      "bonds": 7746,
      "idiotic": 7747,
      "encounters": 7748,
      "rambling": 7749,
      "scottish": 7750,
      "crypt": 7751,
      "luckiest": 7752,
      "extravagant": 7753,
      "extravagantly": 7754,
      "tongues": 7755,
      "deepest": 7756,
      "irresistibly": 7757,
      "survivors": 7758,
      "whimsicality": 7759,
      "introducing": 7760,
      "transcendence": 7761,
      "victimized": 7762,
      "hurley": 7763,
      "mountain": 7764,
      "unabashed": 7765,
      "unfulfilled": 7766,
      "ribably": 7767,
      "ribcage": 7768,
      "qualify": 7769,
      "weave": 7770,
      "weaving": 7771,
      "surrounded": 7772,
      "laziest": 7773,
      "discovering": 7774,
      "shockingly": 7775,
      "multiple": 7776,
      "catharsis": 7777,
      "eerie": 7778,
      "evidence": 7779,
      "idiosyn": 7780,
      "lunatic": 7781,
      "tackles": 7782,
      "annals": 7783,
      "heightened": 7784,
      "strengths": 7785,
      "warriors": 7786,
      "satiric": 7787,
      "collectively": 7788,
      "swimming": 7789,
      "dangerous": 7790,
      "eats": 7791,
      "gasping": 7792,
      "hatred": 7793,
      "vanity": 7794,
      "inexplicably": 7795,
      "empire": 7796,
      "freddie": 7797,
      "controversial": 7798,
      "similar": 7799,
      "deliberately": 7800,
      "fragmented": 7801,
      "contrivance": 7802,
      "symbolic": 7803,
      "symbolism": 7804,
      "nicholson": 7805,
      "naught": 7806,
      "squeeze": 7807,
      "vacation": 7808,
      "thirty": 7809,
      "redeems": 7810,
      "chief": 7811,
      "separation": 7812,
      "democr": 7813,
      "forthright": 7814,
      "concoction": 7815,
      "society": 7816,
      "placid": 7817,
      "luridly": 7818,
      "1958": 7819,
      "episodic": 7820,
      "tempting": 7821,
      "reinforcement": 7822,
      "departure": 7823,
      "department": 7824,
      "perceptive": 7825,
      "assault": 7826,
      "hypocritical": 7827,
      "footed": 7828,
      "rubbo": 7829,
      "threatened": 7830,
      "environmental": 7831,
      "enigma": 7832,
      "choreographed": 7833,
      "destructive": 7834,
      "spiffing": 7835,
      "exhaust": 7836,
      "exuberant": 7837,
      "participants": 7838,
      "months": 7839,
      "distasteful": 7840,
      "elevated": 7841,
      "schizo": 7842,
      "destroying": 7843,
      "squarely": 7844,
      "organic": 7845,
      "harris": 7846,
      "lampoon": 7847,
      "lapses": 7848,
      "yuen": 7849,
      "zippy": 7850,
      "reverie": 7851,
      "stalls": 7852,
      "scorpion": 7853,
      "dopey": 7854,
      "romancer": 7855,
      "illuminating": 7856,
      "gibson": 7857,
      "cultivation": 7858,
      "spookiness": 7859,
      "circumstances": 7860,
      "sublimely": 7861,
      "principles": 7862,
      "principals": 7863,
      "ibited": 7864,
      "kieran": 7865,
      "nutty": 7866,
      "thumpingly": 7867,
      "stagy": 7868,
      "stifles": 7869,
      "argentine": 7870,
      "tolerate": 7871,
      "septic": 7872,
      "condensed": 7873,
      "congratulation": 7874,
      "autopsy": 7875,
      "western": 7876,
      "optimistic": 7877,
      "opposites": 7878,
      "system": 7879,
      "carnage": 7880,
      "metropolis": 7881,
      "allegedly": 7882,
      "olivier": 7883,
      "gimmicky": 7884,
      "giggle": 7885,
      "orchestrating": 7886,
      "fiddle": 7887,
      "rhapsodi": 7888,
      "insecure": 7889,
      "anguish": 7890,
      "stanley": 7891,
      "moonlight": 7892,
      "unconditional": 7893,
      "defeated": 7894,
      "decorating": 7895,
      "shirt": 7896,
      "convoluted": 7897,
      "oppressively": 7898,
      "flourishes": 7899,
      "bluescreen": 7900,
      "screwball": 7901,
      "grayish": 7902,
      "frenetic": 7903,
      "ruthlessly": 7904,
      "communicates": 7905,
      "amok": 7906,
      "awareness": 7907,
      "besson": 7908,
      "cinderella": 7909,
      "ditsy": 7910,
      "drenched": 7911,
      "eastern": 7912,
      "herself": 7913,
      "haneke": 7914,
      "hodgepodge": 7915,
      "jessica": 7916,
      "kalvert": 7917,
      "kafka": 7918,
      "lavish": 7919,
      "morsels": 7920,
      "mundane": 7921,
      "nudity": 7922,
      "pacino": 7923,
      "penetrating": 7924,
      "rouge": 7925,
      "sundance": 7926,
      "tatters": 7927,
      "wacky": 7928,
      "yesterday": 7929,
      "innuendo": 7930,
      "anemic": 7931,
      "enjoying": 7932,
      "resemble": 7933,
      "retaliation": 7934,
      "rejected": 7935,
      "restrictive": 7936,
      "rembrandt": 7937,
      "stellar": 7938,
      "orlando": 7939,
      "alabama": 7940,
      "israel": 7941,
      "aristocr": 7942,
      "arbitr": 7943,
      "assumes": 7944,
      "bewitched": 7945,
      "beguiling": 7946,
      "unrecoverable": 7947,
      "unapolo": 7948,
      "unmistakable": 7949,
      "impersonation": 7950,
      "decibel": 7951,
      "mawkish": 7952,
      "librarian": 7953,
      "versatile": 7954,
      "witherspoon": 7955,
      "divorce": 7956,
      "dilemma": 7957,
      "nebrida": 7958,
      "tavernier": 7959,
      "austerity": 7960,
      "prolonged": 7961,
      "hawaiian": 7962,
      "indescribably": 7963,
      "goodfellas": 7964,
      "blasphemous": 7965,
      "bludgeoning": 7966,
      "traffic": 7967,
      "insensitivity": 7968,
      "disquieting": 7969,
      "wertmuller": 7970,
      "interpretation": 7971,
      "subordinate": 7972,
      "subjugate": 7973,
      "chekhov": 7974,
      "porridge": 7975,
      "arrangements": 7976,
      "basketball": 7977,
      "nonjudgmental": 7978,
      "transvestite": 7979,
      "grotesque": 7980,
      "idiosyncratic": 7981,
      "14": 7982,
      "17": 7983,
      "110": 7984,
      "3d": 7985,
      "48": 7986,
      "65": 7987,
      "83": 7988,
      "80s": 7989,
      "ais": 7990,
      "awry": 7991,
      "bic": 7992,
      "bam": 7993,
      "bod": 7994,
      "bind": 7995,
      "bible": 7996,
      "bath": 7997,
      "bull": 7998,
      "cli": 7999
    },
    "merges": [
      [
        "t",
        "h"
      ],
      [
        "i",
        "n"
      ],
      [
        "a",
        "n"
      ],
      [
        "e",
        "r"
      ],
      [
        "e",
        "n"
      ],
      [
        "r",
        "e"
      ],
      [
        "th",
        "e"
      ],
      [
        "a",
        "t"
      ],
      [
        "o",
        "n"
      ],
      [
        "in",
        "g"
      ],
      [
        "s",
        "t"
      ],
      [
        "o",
        "r"
      ],
      [
        "i",
        "t"
      ],
      [
        "an",
        "d"
      ],
      [
        "a",
        "l"
      ],
      [
        "e",
        "s"
      ],
      [
        "i",
        "s"
      ],
      [
        "o",
        "u"
      ],
      [
        "a",
        "r"
      ],
      [
        "o",
        "f"
      ],
      [
        "l",
        "y"
      ],
      [
        "t",
        "o"
      ],
      [
        "e",
        "d"
      ],
      [
        "i",
        "c"
      ],
      [
        "l",
        "e"
      ],
      [
        "a",
        "s"
      ],
      [
        "o",
        "m"
      ],
      [
        "i",
        "l"
      ],
      [
        "c",
        "h"
      ],
      [
        "m",
        "o"
      ],
      [
        "e",
        "l"
      ],
      [
        "en",
        "t"
      ],
      [
        "a",
        "c"
      ],
      [
        "i",
        "on"
      ],
      [
        "s",
        "e"
      ],
      [
        "b",
        "e"
      ],
      [
        "u",
        "n"
      ],
      [
        "v",
        "e"
      ],
      [
        "th",
        "at"
      ],
      [
        "i",
        "m"
      ],
      [
        "d",
        "e"
      ],
      [
        "u",
        "l"
      ],
      [
        "l",
        "o"
      ],
      [
        "v",
        "i"
      ],
      [
        "a",
        "b"
      ],
      [
        "g",
        "h"
      ],
      [
        "f",
        "or"
      ],
      [
        "m",
        "a"
      ],
      [
        "l",
        "i"
      ],
      [
        "r",
        "a"
      ],
      [
        "v",
        "er"
      ],
      [
        "r",
        "o"
      ],
      [
        "u",
        "t"
      ],
      [
        "w",
        "h"
      ],
      [
        "s",
        "u"
      ],
      [
        "c",
        "om"
      ],
      [
        "t",
        "er"
      ],
      [
        "w",
        "i"
      ],
      [
        "c",
        "e"
      ],
      [
        "f",
        "il"
      ],
      [
        "n",
        "o"
      ],
      [
        "r",
        "i"
      ],
      [
        "fil",
        "m"
      ],
      [
        "a",
        "d"
      ],
      [
        "c",
        "t"
      ],
      [
        "wi",
        "th"
      ],
      [
        "a",
        "m"
      ],
      [
        "d",
        "i"
      ],
      [
        "es",
        "s"
      ],
      [
        "s",
        "h"
      ],
      [
        "k",
        "e"
      ],
      [
        "g",
        "e"
      ],
      [
        "it",
        "s"
      ],
      [
        "o",
        "l"
      ],
      [
        "i",
        "r"
      ],
      [
        "f",
        "e"
      ],
      [
        "mo",
        "vi"
      ],
      [
        "ou",
        "t"
      ],
      [
        "y",
        "ou"
      ],
      [
        "p",
        "er"
      ],
      [
        "a",
        "y"
      ],
      [
        "on",
        "e"
      ],
      [
        "s",
        "p"
      ],
      [
        "e",
        "x"
      ],
      [
        "movi",
        "e"
      ],
      [
        "c",
        "on"
      ],
      [
        "o",
        "d"
      ],
      [
        "ou",
        "s"
      ],
      [
        "a",
        "p"
      ],
      [
        "u",
        "m"
      ],
      [
        "f",
        "ul"
      ],
      [
        "s",
        "c"
      ],
      [
        "p",
        "o"
      ],
      [
        "n",
        "e"
      ],
      [
        "s",
        "o"
      ],
      [
        "ar",
        "t"
      ],
      [
        "gh",
        "t"
      ],
      [
        "d",
        "o"
      ],
      [
        "i",
        "ve"
      ],
      [
        "th",
        "is"
      ],
      [
        "ac",
        "t"
      ],
      [
        "an",
        "t"
      ],
      [
        "al",
        "l"
      ],
      [
        "at",
        "ion"
      ],
      [
        "g",
        "o"
      ],
      [
        "th",
        "er"
      ],
      [
        "w",
        "or"
      ],
      [
        "e",
        "m"
      ],
      [
        "q",
        "u"
      ],
      [
        "a",
        "g"
      ],
      [
        "ab",
        "le"
      ],
      [
        "r",
        "om"
      ],
      [
        "b",
        "ut"
      ],
      [
        "il",
        "l"
      ],
      [
        "a",
        "re"
      ],
      [
        "u",
        "re"
      ],
      [
        "m",
        "an"
      ],
      [
        "al",
        "ly"
      ],
      [
        "a",
        "st"
      ],
      [
        "u",
        "r"
      ],
      [
        "at",
        "e"
      ],
      [
        "i",
        "d"
      ],
      [
        "p",
        "re"
      ],
      [
        "u",
        "s"
      ],
      [
        ".",
        "."
      ],
      [
        "t",
        "a"
      ],
      [
        "p",
        "e"
      ],
      [
        "a",
        "u"
      ],
      [
        "p",
        "l"
      ],
      [
        "p",
        "ro"
      ],
      [
        "om",
        "e"
      ],
      [
        "it",
        "y"
      ],
      [
        "h",
        "e"
      ],
      [
        "ch",
        "ar"
      ],
      [
        "el",
        "l"
      ],
      [
        "w",
        "e"
      ],
      [
        "no",
        "t"
      ],
      [
        "b",
        "y"
      ],
      [
        "en",
        "d"
      ],
      [
        "s",
        "ome"
      ],
      [
        "or",
        "y"
      ],
      [
        "t",
        "im"
      ],
      [
        "t",
        "r"
      ],
      [
        "l",
        "d"
      ],
      [
        "i",
        "st"
      ],
      [
        "h",
        "a"
      ],
      [
        "er",
        "s"
      ],
      [
        "mo",
        "re"
      ],
      [
        "th",
        "ing"
      ],
      [
        "e",
        "v"
      ],
      [
        "li",
        "ke"
      ],
      [
        "th",
        "an"
      ],
      [
        "in",
        "d"
      ],
      [
        "in",
        "t"
      ],
      [
        "k",
        "ing"
      ],
      [
        "-",
        "-"
      ],
      [
        "f",
        "un"
      ],
      [
        "ver",
        "y"
      ],
      [
        "ou",
        "gh"
      ],
      [
        "o",
        "p"
      ],
      [
        "u",
        "st"
      ],
      [
        "i",
        "g"
      ],
      [
        "u",
        "p"
      ],
      [
        "i",
        "f"
      ],
      [
        "c",
        "l"
      ],
      [
        "s",
        "s"
      ],
      [
        "h",
        "as"
      ],
      [
        "o",
        "w"
      ],
      [
        "f",
        "rom"
      ],
      [
        "en",
        "ce"
      ],
      [
        "mo",
        "st"
      ],
      [
        "ac",
        "k"
      ],
      [
        "d",
        "er"
      ],
      [
        "in",
        "e"
      ],
      [
        "ab",
        "out"
      ],
      [
        "b",
        "o"
      ],
      [
        "ic",
        "h"
      ],
      [
        "h",
        "is"
      ],
      [
        "t",
        "s"
      ],
      [
        "i",
        "ght"
      ],
      [
        "it",
        "t"
      ],
      [
        "wh",
        "o"
      ],
      [
        "on",
        "g"
      ],
      [
        "ac",
        "ter"
      ],
      [
        "char",
        "acter"
      ],
      [
        "t",
        "e"
      ],
      [
        "f",
        "l"
      ],
      [
        "w",
        "ay"
      ],
      [
        "ou",
        "ld"
      ],
      [
        "ar",
        "d"
      ],
      [
        "is",
        "h"
      ],
      [
        "i",
        "ous"
      ],
      [
        "st",
        "ory"
      ],
      [
        "m",
        "e"
      ],
      [
        "i",
        "e"
      ],
      [
        "ha",
        "ve"
      ],
      [
        "p",
        "t"
      ],
      [
        "go",
        "od"
      ],
      [
        "i",
        "al"
      ],
      [
        "l",
        "ess"
      ],
      [
        "ou",
        "n"
      ],
      [
        "e",
        "p"
      ],
      [
        "k",
        "s"
      ],
      [
        "n",
        "y"
      ],
      [
        "p",
        "le"
      ],
      [
        "c",
        "re"
      ],
      [
        "g",
        "u"
      ],
      [
        "w",
        "o"
      ],
      [
        "h",
        "um"
      ],
      [
        "com",
        "ed"
      ],
      [
        "h",
        "er"
      ],
      [
        "ou",
        "r"
      ],
      [
        "b",
        "l"
      ],
      [
        "re",
        "ct"
      ],
      [
        "to",
        "o"
      ],
      [
        "p",
        "h"
      ],
      [
        "m",
        "ent"
      ],
      [
        "di",
        "rect"
      ],
      [
        "in",
        "to"
      ],
      [
        "th",
        "r"
      ],
      [
        "of",
        "f"
      ],
      [
        "c",
        "es"
      ],
      [
        "an",
        "y"
      ],
      [
        "b",
        "le"
      ],
      [
        "lo",
        "w"
      ],
      [
        "j",
        "o"
      ],
      [
        "b",
        "r"
      ],
      [
        "p",
        "r"
      ],
      [
        "st",
        "r"
      ],
      [
        "t",
        "ra"
      ],
      [
        "k",
        "es"
      ],
      [
        "m",
        "at"
      ],
      [
        "c",
        "k"
      ],
      [
        "..",
        "."
      ],
      [
        "fun",
        "ny"
      ],
      [
        "d",
        "ra"
      ],
      [
        "ic",
        "al"
      ],
      [
        "in",
        "s"
      ],
      [
        "v",
        "es"
      ],
      [
        "at",
        "ing"
      ],
      [
        "c",
        "o"
      ],
      [
        "as",
        "s"
      ],
      [
        "ev",
        "en"
      ],
      [
        "m",
        "u"
      ],
      [
        "i",
        "es"
      ],
      [
        "at",
        "ive"
      ],
      [
        "i",
        "re"
      ],
      [
        "comed",
        "y"
      ],
      [
        "e",
        "st"
      ],
      [
        "el",
        "f"
      ],
      [
        "g",
        "r"
      ],
      [
        "tim",
        "e"
      ],
      [
        "ar",
        "y"
      ],
      [
        "ol",
        "d"
      ],
      [
        "e",
        "t"
      ],
      [
        "ic",
        "k"
      ],
      [
        "j",
        "ust"
      ],
      [
        "at",
        "ed"
      ],
      [
        "ic",
        "t"
      ],
      [
        "c",
        "an"
      ],
      [
        "f",
        "f"
      ],
      [
        "ta",
        "in"
      ],
      [
        "en",
        "s"
      ],
      [
        "ing",
        "ly"
      ],
      [
        "wh",
        "at"
      ],
      [
        "e",
        "ct"
      ],
      [
        "w",
        "ell"
      ],
      [
        "en",
        "se"
      ],
      [
        "e",
        "ar"
      ],
      [
        "o",
        "ther"
      ],
      [
        "o",
        "ver"
      ],
      [
        "su",
        "r"
      ],
      [
        "per",
        "for"
      ],
      [
        "g",
        "re"
      ],
      [
        "w",
        "n"
      ],
      [
        "it",
        "e"
      ],
      [
        "d",
        "is"
      ],
      [
        "i",
        "le"
      ],
      [
        "w",
        "at"
      ],
      [
        "t",
        "y"
      ],
      [
        "is",
        "e"
      ],
      [
        "c",
        "r"
      ],
      [
        "p",
        "a"
      ],
      [
        "w",
        "er"
      ],
      [
        "er",
        "tain"
      ],
      [
        "character",
        "s"
      ],
      [
        "fe",
        "el"
      ],
      [
        "ic",
        "e"
      ],
      [
        "p",
        "lo"
      ],
      [
        "e",
        "very"
      ],
      [
        "you",
        "r"
      ],
      [
        "oun",
        "d"
      ],
      [
        "m",
        "in"
      ],
      [
        "w",
        "ill"
      ],
      [
        "in",
        "ter"
      ],
      [
        "an",
        "ce"
      ],
      [
        "ac",
        "e"
      ],
      [
        "sc",
        "re"
      ],
      [
        "do",
        "es"
      ],
      [
        "b",
        "ad"
      ],
      [
        "d",
        "es"
      ],
      [
        "su",
        "b"
      ],
      [
        "s",
        "er"
      ],
      [
        "lo",
        "o"
      ],
      [
        "g",
        "en"
      ],
      [
        "perfor",
        "man"
      ],
      [
        "l",
        "itt"
      ],
      [
        "or",
        "t"
      ],
      [
        "w",
        "r"
      ],
      [
        "wor",
        "k"
      ],
      [
        "mu",
        "ch"
      ],
      [
        "litt",
        "le"
      ],
      [
        "i",
        "z"
      ],
      [
        "i",
        "de"
      ],
      [
        "ge",
        "t"
      ],
      [
        "fe",
        "ct"
      ],
      [
        "t",
        "al"
      ],
      [
        "b",
        "er"
      ],
      [
        "m",
        "ar"
      ],
      [
        "m",
        "er"
      ],
      [
        "re",
        "al"
      ],
      [
        "as",
        "h"
      ],
      [
        "li",
        "fe"
      ],
      [
        "f",
        "a"
      ],
      [
        "v",
        "is"
      ],
      [
        "pl",
        "ay"
      ],
      [
        "st",
        "er"
      ],
      [
        "`",
        "`"
      ],
      [
        "a",
        "ch"
      ],
      [
        "i",
        "v"
      ],
      [
        "n",
        "ess"
      ],
      [
        "'",
        "'"
      ],
      [
        "a",
        "ge"
      ],
      [
        "scre",
        "en"
      ],
      [
        "wh",
        "ich"
      ],
      [
        "d",
        "u"
      ],
      [
        "o",
        "t"
      ],
      [
        "d",
        "el"
      ],
      [
        "ent",
        "s"
      ],
      [
        "he",
        "art"
      ],
      [
        "wat",
        "ch"
      ],
      [
        "w",
        "ar"
      ],
      [
        "v",
        "el"
      ],
      [
        "lo",
        "ve"
      ],
      [
        "act",
        "ion"
      ],
      [
        "be",
        "t"
      ],
      [
        "the",
        "ir"
      ],
      [
        "ul",
        "t"
      ],
      [
        "be",
        "st"
      ],
      [
        "v",
        "ing"
      ],
      [
        "ent",
        "ertain"
      ],
      [
        "ma",
        "ke"
      ],
      [
        "i",
        "ly"
      ],
      [
        "i",
        "p"
      ],
      [
        "m",
        "y"
      ],
      [
        "ful",
        "ly"
      ],
      [
        "e",
        "f"
      ],
      [
        "s",
        "elf"
      ],
      [
        "direct",
        "or"
      ],
      [
        "u",
        "d"
      ],
      [
        "y",
        "ing"
      ],
      [
        "on",
        "ly"
      ],
      [
        "thr",
        "ough"
      ],
      [
        "a",
        "f"
      ],
      [
        "s",
        "m"
      ],
      [
        "se",
        "e"
      ],
      [
        "l",
        "ing"
      ],
      [
        "com",
        "p"
      ],
      [
        "be",
        "en"
      ],
      [
        "f",
        "re"
      ],
      [
        "se",
        "em"
      ],
      [
        "im",
        "p"
      ],
      [
        "h",
        "o"
      ],
      [
        "a",
        "w"
      ],
      [
        "t",
        "ri"
      ],
      [
        "hum",
        "or"
      ],
      [
        "mo",
        "t"
      ],
      [
        "a",
        "in"
      ],
      [
        "o",
        "re"
      ],
      [
        "ne",
        "w"
      ],
      [
        "un",
        "der"
      ],
      [
        "u",
        "al"
      ],
      [
        "ne",
        "ver"
      ],
      [
        "c",
        "ess"
      ],
      [
        "the",
        "m"
      ],
      [
        "y",
        "ear"
      ],
      [
        "ion",
        "al"
      ],
      [
        "p",
        "art"
      ],
      [
        "s",
        "on"
      ],
      [
        "inter",
        "est"
      ],
      [
        "l",
        "ong"
      ],
      [
        "ion",
        "s"
      ],
      [
        "c",
        "in"
      ],
      [
        "am",
        "e"
      ],
      [
        "movi",
        "es"
      ],
      [
        "s",
        "y"
      ],
      [
        "an",
        "s"
      ],
      [
        "au",
        "gh"
      ],
      [
        "ma",
        "kes"
      ],
      [
        "en",
        "g"
      ],
      [
        "en",
        "ough"
      ],
      [
        "il",
        "d"
      ],
      [
        "a",
        "ut"
      ],
      [
        "c",
        "ent"
      ],
      [
        "r",
        "y"
      ],
      [
        "in",
        "al"
      ],
      [
        "min",
        "ut"
      ],
      [
        "j",
        "ect"
      ],
      [
        "ma",
        "de"
      ],
      [
        "ther",
        "e"
      ],
      [
        "jo",
        "y"
      ],
      [
        "g",
        "ra"
      ],
      [
        "w",
        "as"
      ],
      [
        "f",
        "r"
      ],
      [
        "n",
        "ing"
      ],
      [
        "o",
        "b"
      ],
      [
        "f",
        "am"
      ],
      [
        "sp",
        "ir"
      ],
      [
        "com",
        "e"
      ],
      [
        "c",
        "ast"
      ],
      [
        "g",
        "ent"
      ],
      [
        "l",
        "augh"
      ],
      [
        "t",
        "ur"
      ],
      [
        "ri",
        "ght"
      ],
      [
        "o",
        "c"
      ],
      [
        "some",
        "thing"
      ],
      [
        "plo",
        "t"
      ],
      [
        "t",
        "ing"
      ],
      [
        "gre",
        "at"
      ],
      [
        "or",
        "s"
      ],
      [
        "au",
        "di"
      ],
      [
        "ab",
        "ly"
      ],
      [
        "c",
        "au"
      ],
      [
        "p",
        "ar"
      ],
      [
        "u",
        "e"
      ],
      [
        "v",
        "ent"
      ],
      [
        "st",
        "y"
      ],
      [
        "ch",
        "e"
      ],
      [
        "h",
        "ol"
      ],
      [
        "ig",
        "n"
      ],
      [
        "be",
        "aut"
      ],
      [
        "b",
        "it"
      ],
      [
        "w",
        "ould"
      ],
      [
        "ple",
        "as"
      ],
      [
        "im",
        "ag"
      ],
      [
        "do",
        "wn"
      ],
      [
        "a",
        "v"
      ],
      [
        "s",
        "ense"
      ],
      [
        "an",
        "g"
      ],
      [
        "pre",
        "ss"
      ],
      [
        "s",
        "at"
      ],
      [
        "po",
        "int"
      ],
      [
        "d",
        "ay"
      ],
      [
        "i",
        "ble"
      ],
      [
        "sur",
        "pr"
      ],
      [
        "b",
        "el"
      ],
      [
        "f",
        "ir"
      ],
      [
        "am",
        "er"
      ],
      [
        "b",
        "ig"
      ],
      [
        "t",
        "en"
      ],
      [
        "ma",
        "y"
      ],
      [
        "ow",
        "n"
      ],
      [
        "hum",
        "an"
      ],
      [
        "c",
        "le"
      ],
      [
        "c",
        "ar"
      ],
      [
        "loo",
        "k"
      ],
      [
        "performan",
        "ces"
      ],
      [
        "c",
        "ap"
      ],
      [
        "e",
        "ver"
      ],
      [
        "m",
        "ing"
      ],
      [
        "wh",
        "ile"
      ],
      [
        "h",
        "ow"
      ],
      [
        "li",
        "ght"
      ],
      [
        "ro",
        "w"
      ],
      [
        "c",
        "i"
      ],
      [
        "e",
        "c"
      ],
      [
        "en",
        "joy"
      ],
      [
        "i",
        "gh"
      ],
      [
        "no",
        "w"
      ],
      [
        "wo",
        "od"
      ],
      [
        "at",
        "ure"
      ],
      [
        "st",
        "and"
      ],
      [
        "ma",
        "king"
      ],
      [
        "sc",
        "en"
      ],
      [
        "b",
        "ack"
      ],
      [
        "c",
        "um"
      ],
      [
        "c",
        "ould"
      ],
      [
        "e",
        "mot"
      ],
      [
        "t",
        "ent"
      ],
      [
        "film",
        "s"
      ],
      [
        "ate",
        "ly"
      ],
      [
        "gu",
        "e"
      ],
      [
        "dra",
        "ma"
      ],
      [
        "cau",
        "se"
      ],
      [
        "s",
        "it"
      ],
      [
        "t",
        "wo"
      ],
      [
        "man",
        "y"
      ],
      [
        "m",
        "on"
      ],
      [
        "the",
        "y"
      ],
      [
        "wor",
        "th"
      ],
      [
        "bet",
        "ter"
      ],
      [
        "ell",
        "ing"
      ],
      [
        "r",
        "un"
      ],
      [
        "re",
        "ally"
      ],
      [
        "vi",
        "e"
      ],
      [
        "act",
        "ing"
      ],
      [
        "a",
        "k"
      ],
      [
        "g",
        "y"
      ],
      [
        "be",
        "ing"
      ],
      [
        "fir",
        "st"
      ],
      [
        "s",
        "l"
      ],
      [
        "s",
        "we"
      ],
      [
        "t",
        "re"
      ],
      [
        "v",
        "ed"
      ],
      [
        "su",
        "ch"
      ],
      [
        "m",
        "ed"
      ],
      [
        "ver",
        "s"
      ],
      [
        "c",
        "ol"
      ],
      [
        "h",
        "ard"
      ],
      [
        "th",
        "o"
      ],
      [
        "c",
        "are"
      ],
      [
        "surpr",
        "is"
      ],
      [
        "p",
        "or"
      ],
      [
        "ce",
        "pt"
      ],
      [
        "tim",
        "es"
      ],
      [
        "ist",
        "ic"
      ],
      [
        "int",
        "el"
      ],
      [
        "thr",
        "ill"
      ],
      [
        "c",
        "ed"
      ],
      [
        "m",
        "em"
      ],
      [
        "m",
        "ind"
      ],
      [
        "is",
        "m"
      ],
      [
        "ap",
        "p"
      ],
      [
        "p",
        "ie"
      ],
      [
        "th",
        "in"
      ],
      [
        "ar",
        "ly"
      ],
      [
        "per",
        "i"
      ],
      [
        "po",
        "wer"
      ],
      [
        "se",
        "t"
      ],
      [
        "wor",
        "ld"
      ],
      [
        "pe",
        "op"
      ],
      [
        "peop",
        "le"
      ],
      [
        "b",
        "u"
      ],
      [
        "k",
        "ind"
      ],
      [
        "be",
        "cause"
      ],
      [
        "wh",
        "en"
      ],
      [
        "sc",
        "ri"
      ],
      [
        "h",
        "or"
      ],
      [
        "u",
        "ally"
      ],
      [
        "ch",
        "o"
      ],
      [
        "bo",
        "th"
      ],
      [
        "no",
        "thing"
      ],
      [
        "with",
        "out"
      ],
      [
        "sh",
        "ow"
      ],
      [
        "ant",
        "ic"
      ],
      [
        "h",
        "igh"
      ],
      [
        "n",
        "er"
      ],
      [
        "k",
        "id"
      ],
      [
        "ar",
        "r"
      ],
      [
        "com",
        "es"
      ],
      [
        "a",
        "th"
      ],
      [
        "k",
        "y"
      ],
      [
        "p",
        "ict"
      ],
      [
        "or",
        "ig"
      ],
      [
        "ation",
        "s"
      ],
      [
        "entertain",
        "ing"
      ],
      [
        "audi",
        "ence"
      ],
      [
        "w",
        "on"
      ],
      [
        "orig",
        "inal"
      ],
      [
        "ul",
        "l"
      ],
      [
        "ic",
        "ally"
      ],
      [
        "beaut",
        "i"
      ],
      [
        "hol",
        "ly"
      ],
      [
        "f",
        "ar"
      ],
      [
        "t",
        "ed"
      ],
      [
        "er",
        "e"
      ],
      [
        "re",
        "l"
      ],
      [
        "com",
        "ple"
      ],
      [
        "cl",
        "ich"
      ],
      [
        "intel",
        "li"
      ],
      [
        "ou",
        "ght"
      ],
      [
        "of",
        "ten"
      ],
      [
        "d",
        "a"
      ],
      [
        "p",
        "p"
      ],
      [
        "st",
        "ill"
      ],
      [
        "m",
        "is"
      ],
      [
        "s",
        "ent"
      ],
      [
        "u",
        "g"
      ],
      [
        "al",
        "so"
      ],
      [
        "sh",
        "ould"
      ],
      [
        "po",
[...]
